the 322766
a 169018
and 159909
of 144664
to 134881
is 106160
in 94024
i 75692
this 70059
it 67973
that 66479
/><br 50935
was 47128
as 46917
for 42983
with 42865
but 40204
on 36480
movie 31035
are 29556
his 29269
not 28863
"@@ 28388
film 27905
you 27892
have 27485
he 26863
be 26428
an 26229
at 24661
one 23601
by 22975
/>@@ 21262
(@@ 21185
they 21054
all 20414
from 20234
or 19960
who 19696
like 19224
so 18699
just 17722
her 16884
, 16644
has 16631
about 16604
it's 16494
. 15774
if 15554
some 15548
out 15104
re@@ 14424
-@@ 14375
what 14280
very 13902
when 13811
.<br 13624
more 13508
there 13380
's 13000
my 12586
she 12573
even 12274
good 12208
would 12065
s, 11881
no 11864
ed 11852
only 11786
" 11469
their 11362
up 11314
really 11122
which 11086
had 11080
- 10952
s 10921
can 10919
un@@ 10847
see 10710
ing 10628
s@@ 10560
were 10548
s. 10178
than 10082
we 9988
) 9868
in@@ 9756
e@@ 9471
its 9303
get 9269
t@@ 9248
'@@ 9237
d@@ 9138
been 9096
will 9019
into 9016
because 8901
much 8846
story 8835
es 8827
how 8794
time 8747
most 8721
p@@ 8719
do 8480
k@@ 8372
! 8370
other 8339
me 8284
also 8239
don't 8090
first 8057
b@@ 7913
e, 7894
great 7850
people 7782
er 7706
any 7704
make 7672
<br 7667
g@@ 7648
could 7628
y 7515
/>the 7409
after 7292
made 7291
al@@ 7269
y, 7148
then 7059
bad 6986
think 6860
a@@ 6822
t 6768
? 6746
e 6737
many 6617
e. 6507
it@@ 6486
being 6473
y@@ 6432
him 6394
never 6391
where 6382
o 6360
two 6356
way 6346
well 6321
man 6300
f@@ 6281
u@@ 6280
too 6271
little 6228
n@@ 6177
: 6106
st@@ 6100
it. 6041
i@@ 6003
di@@ 5977
m@@ 5958
be@@ 5948
o@@ 5918
watch 5907
de@@ 5895
sh@@ 5842
did 5770
c@@ 5756
y. 5659
your 5639
er@@ 5599
best 5588
does 5563
ing, 5529
ch@@ 5519
ar@@ 5477
le@@ 5464
them 5460
love 5436
seen 5435
ever 5398
an@@ 5398
movie. 5381
movies 5341
know 5340
these 5330
ing. 5324
over 5296
character 5294
characters 5282
es, 5224
h@@ 5190
on@@ 5174
ra@@ 5169
still 5159
al 5156
go 5089
se@@ 5082
v@@ 5072
ri@@ 5054
li@@ 5036
acting 5025
while 4998
such 4970
plot 4963
.@@ 4909
w@@ 4895
should 4875
films 4845
off 4806
es@@ 4792
l@@ 4790
en@@ 4771
' 4758
end 4704
ation 4692
), 4692
show 4689
able 4686
r@@ 4672
el@@ 4669
why 4640
those 4627
). 4610
z@@ 4580
; 4577
ro@@ 4561
something 4543
better 4537
through 4526
say 4510
film. 4501
i'm 4497
back 4491
ly 4453
doesn't 4437
ic@@ 4390
... 4372
ers 4371
ed, 4349
es. 4315
makes 4227
lo@@ 4189
life 4186
watching 4182
didn't 4175
us 4167
real 4147
at@@ 4142
ts 4129
scene 4123
new 4092
film, 4049
find 4032
old 4017
ed. 4012
movie, 4005
going 3991
few 3968
d 3965
every 3964
actually 3960
ma@@ 3958
am@@ 3945
or@@ 3944
scenes 3917
la@@ 3892
look 3868
nothing 3847
k 3830
ate 3826
con@@ 3798
same 3790
ous 3784
t, 3780
thing 3775
d, 3768
im@@ 3764
co@@ 3760
another 3758
si@@ 3741
ed@@ 3736
/>i 3735
it, 3719
quite 3705
bo@@ 3699
le 3687
lot 3653
d. 3630
ted 3613
/@@ 3583
want 3576
pretty 3570
before 3547
got 3536
seems 3520
is@@ 3519
ti@@ 3514
po@@ 3510
& 3509
ca@@ 3505
give 3479
can't 3476
ad@@ 3473
er, 3463
take 3450
part 3430
ge@@ 3422
that's 3411
actors 3403
m 3390
ha@@ 3373
th@@ 3368
years 3360
young 3355
pe@@ 3351
i've 3343
to@@ 3335
s.<br 3331
work 3329
may 3329
director 3326
ent 3301
t. 3301
gu@@ 3289
between 3287
ta@@ 3285
ne@@ 3282
gets 3273
am 3269
bu@@ 3269
though 3263
both 3258
sa@@ 3243
ent@@ 3232
without 3231
ing@@ 3223
things 3216
mar@@ 3215
now 3205
big 3192
,@@ 3187
ated 3185
our 3185
...@@ 3184
do@@ 3182
here 3177
su@@ 3164
g 3160
red 3156
down 3152
saw 3148
p 3122
around 3090
thought 3085
cast 3075
almost 3072
come 3071
man@@ 3036
se 3031
isn't 3027
always 3023
less 3021
must 3014
ac@@ 3008
car@@ 3004
j@@ 3003
l 2984
mo@@ 2978
horror 2976
own 2971
bit 2965
no@@ 2950
sp@@ 2948
go@@ 2932
there's 2931
per@@ 2919
me@@ 2912
pre@@ 2906
son 2901
whole 2898
he's 2898
"the 2885
il@@ 2882
ab@@ 2870
might 2866
long 2840
last 2825
as@@ 2824
du@@ 2824
probably 2817
en 2786
original 2766
since 2752
king 2748
action 2748
least 2746
enough 2735
feel 2720
n 2686
sure 2679
far 2658
rather 2645
", 2639
kind 2638
found 2637
wa@@ 2625
world 2615
pa@@ 2607
making 2606
right 2605
ant 2593
com@@ 2592
fact 2574
having 2572
er. 2567
each 2549
funny 2547
te@@ 2544
sc@@ 2538
ds 2521
bi@@ 2510
done 2508
interesting 2507
he@@ 2507
em@@ 2503
ru@@ 2501
st 2497
worst 2491
anything 2487
comes 2483
mon@@ 2456
da@@ 2453
lu@@ 2447
point 2445
set 2442
over@@ 2440
om@@ 2439
trying 2418
ho@@ 2410
". 2409
y's 2386
est 2382
looking 2370
however, 2365
guy 2362
gi@@ 2354
believe 2335
put 2329
har@@ 2328
looks 2325
ag@@ 2324
hard 2320
goes 2303
family 2298
ba@@ 2297
worth 2297
ap@@ 2296
played 2295
series 2293
ly, 2292
de 2290
ul@@ 2276
tv 2275
ke@@ 2273
end@@ 2272
so@@ 2269
ol@@ 2268
ver@@ 2266
ating 2265
anyone 2264
ke 2261
th 2261
/>this 2259
par@@ 2258
main 2254
especially 2250
yet 2240
ending 2226
wasn't 2215
vi@@ 2209
out@@ 2205
maybe 2203
ance 2197
pro@@ 2195
plays 2193
music 2192
role 2189
on. 2182
e.<br 2178
takes 2176
war@@ 2163
tra@@ 2161
script 2160
--@@ 2156
seem 2144
away 2138
watched 2138
ve@@ 2137
performance 2135
ant@@ 2134
ir@@ 2133
someone 2132
on, 2128
for@@ 2126
during 2126
x@@ 2123
ex@@ 2122
woman 2117
different 2113
well, 2103
three 2092
1@@ 2088
minutes 2087
although 2082
american 2078
a, 2071
c 2070
mor@@ 2065
min@@ 2054
ting 2051
girl 2049
ber@@ 2048
day 2047
ic 2038
mi@@ 2036
comedy 2033
ity 2031
times 2029
fi@@ 2029
let 2027
ter 2012
shows 2010
3@@ 2005
time. 2005
once 2002
everything 1999
fe@@ 1988
ks 1987
cu@@ 1985
john 1985
2 1978
ally 1977
tri@@ 1972
ur@@ 1970
play 1969
left 1961
film@@ 1959
her@@ 1958
tr@@ 1951
b 1950
-- 1943
ter@@ 1939
." 1932
you're 1931
wi@@ 1928
used 1922
ings 1920
use 1918
all@@ 1916
mis@@ 1916
seeing 1916
bar@@ 1911
ve 1910
op@@ 1902
inter@@ 1900
simply 1897
x 1891
2@@ 1887
special 1882
jo@@ 1877
bl@@ 1874
pi@@ 1860
ch 1853
fun 1851
all, 1843
read 1842
everyone 1842
true 1839
s" 1836
gra@@ 1834
w 1832
led 1829
place 1828
qu@@ 1823
up@@ 1823
5@@ 1822
9@@ 1818
given 1817
completely 1814
try 1814
again 1813
au@@ 1811
ness 1805
ment 1802
rest 1799
reason 1782
al, 1772
high 1767
dis@@ 1766
id@@ 1765
nice 1765
until 1764
ni@@ 1763
mat@@ 1751
black 1751
star 1751
e-@@ 1750
beautiful 1749
wor@@ 1748
need 1747
na@@ 1738
)@@ 1734
ck 1732
version 1726
one. 1725
is, 1722
sense 1710
truly 1707
lin@@ 1703
second 1682
shot 1679
idea 1677
dvd 1673
help 1673
poor 1665
line 1664
getting 1660
a. 1659
ine 1659
house 1657
low 1656
ding 1656
che@@ 1656
tion 1654
money 1653
s' 1653
ss@@ 1653
job 1646
came 1646
age 1643
excellent 1642
ga@@ 1641
e's 1635
full 1633
ling 1633
actor 1626
under@@ 1625
(and 1625
instead 1620
ali@@ 1620
mer@@ 1619
men 1618
tw@@ 1612
tell 1609
al. 1609
ably 1607
recommend 1607
half 1607
gre@@ 1600
keep 1597
fa@@ 1595
act 1587
gives 1585
les 1584
playing 1582
u 1576
ful 1572
night 1570
ck@@ 1568
along 1567
se. 1565
perhaps 1565
said 1564
bur@@ 1563
hi@@ 1563
enjoy 1563
definitely 1561
book 1557
cor@@ 1555
screen 1553
pri@@ 1552
ations 1551
couple 1550
early 1546
y.<br 1546
ical 1545
later 1545
felt 1545
ou@@ 1544
ses 1542
ev@@ 1535
liked 1531
himself 1531
4@@ 1530
together 1528
can@@ 1525
wife 1525
and@@ 1524
ep@@ 1524
year 1519
remember 1513
col@@ 1511
ty 1509
supposed 1507
audience 1506
effects 1502
3 1500
small 1498
war 1491
sort 1490
become 1490
ingly 1488
understand 1486
time, 1484
fin@@ 1484
father 1484
10 1484
sh 1483
sts 1478
next 1477
," 1476
der@@ 1472
absolutely 1467
ates 1466
show@@ 1465
couldn't 1464
doing 1464
ons 1463
pu@@ 1463
(the 1463
hollywood 1462
fan 1459
entire 1459
star@@ 1454
7@@ 1453
human 1453
att@@ 1452
h 1449
start 1448
against 1447
res 1441
she's 1440
went 1437
y-@@ 1437
often 1435
8@@ 1434
bor@@ 1427
se, 1427
als 1425
ff@@ 1425
es.<br 1425
tal@@ 1424
certainly 1424
ren@@ 1421
ded 1412
several 1411
5 1411
ci@@ 1410
6@@ 1408
ly@@ 1404
live 1403
tt@@ 1402
and, 1396
tim@@ 1395
one, 1391
pl@@ 1388
waste 1385
loved 1385
mu@@ 1384
short 1381
the@@ 1379
based 1377
1 1377
ence 1377
piece 1375
wonderful 1372
kids 1369
becomes 1369
el 1366
despite 1363
ves 1360
face 1360
production 1356
tries 1353
seemed 1351
home 1349
written 1348
i'd 1348
ation. 1348
tic 1346
movie@@ 1346
friends 1345
video 1344
 1337
any@@ 1337
ends 1337
classic 1337
der 1334
d.<br 1328
lost 1325
top 1324
camera 1321
wanted 1321
ans 1318
sk@@ 1317
ary 1316
dead 1316
women 1313
hope 1310
ble 1309
final 1308
str@@ 1307
e" 1306
fully 1305
mind 1303
cre@@ 1303
k. 1298
totally 1294
course 1294
that, 1293
else 1293
s) 1292
d-@@ 1291
you'll 1291
ing.<br 1290
ation, 1288
perfect 1285
under 1284
ically 1283
est@@ 1282
gar@@ 1282
ce@@ 1282
).<br 1280
performances 1276
win@@ 1276
sen@@ 1275
st, 1275
ar 1274
all. 1273
head 1271
ste@@ 1266
ors 1266
death 1265
called 1261
me. 1261
michael 1259
story@@ 1258
hu@@ 1258
them. 1254
sur@@ 1253
ang@@ 1252
kin@@ 1248
ph@@ 1246
they're 1245
sex 1244
ps 1244
side 1240
name 1239
wh@@ 1238
ked 1229
wants 1228
char@@ 1228
ously 1227
lov@@ 1227
ell@@ 1227
dy 1227
view@@ 1226
don@@ 1226
finally 1225
!<br 1225
ent, 1224
ty@@ 1222
*@@ 1222
style 1221
super@@ 1219
tor@@ 1218
school 1216
far@@ 1216
gave 1215
lines 1214
white 1214
either 1212
turn 1210
person 1209
vo@@ 1207
story, 1206
ak@@ 1206
already 1205
clo@@ 1204
ss 1201
il 1198
dra@@ 1196
enjoyed 1195
0@@ 1195
not@@ 1192
sch@@ 1191
k, 1190
ws 1189
z 1185
st. 1185
gh@@ 1185
episode 1184
ide@@ 1183
ity. 1182
ick@@ 1182
me, 1181
ari@@ 1180
sub@@ 1180
care 1180
!@@ 1179
turns 1179
off@@ 1179
stars 1178
4 1177
starts 1177
an, 1174
problem 1173
f 1167
ic, 1164
bro@@ 1163
ation@@ 1160
anc@@ 1160
id 1160
won't 1159
lead 1158
stupid 1157
hol@@ 1156
title 1155
ly. 1154
man, 1152
this. 1151
behind 1151
mean 1150
boy 1148
y" 1146
cra@@ 1146
le, 1146
ts, 1143
this, 1143
budget 1143
able. 1142
br@@ 1142
ys 1142
ry 1141
ess 1139
sound 1136
favorite 1134
ill@@ 1133
mother 1133
ge 1129
case 1129
cha@@ 1128
moments 1128
cr@@ 1126
him. 1124
son@@ 1122
r 1121
cru@@ 1117
ve, 1116
int@@ 1116
guess 1115
ers, 1110
ker 1109
stri@@ 1108
sion 1108
we@@ 1108
ct@@ 1107
highly 1104
tru@@ 1104
type 1103
took 1103
hand@@ 1102
except 1100
kill 1098
ov@@ 1096
well. 1096
every@@ 1094
ped 1094
cannot 1091
bra@@ 1091
ster@@ 1090
in, 1087
ous, 1087
ner@@ 1087
story. 1086
sed 1086
looked 1085
mr. 1084
works 1084
fine 1084
fre@@ 1084
evil 1083
sometimes 1082
one@@ 1080
girl@@ 1078
et@@ 1078
cat@@ 1077
rom@@ 1077
dark 1074
terrible 1073
ge, 1072
por@@ 1070
ton@@ 1070
ous@@ 1069
good. 1069
lack 1066
lat@@ 1066
directed 1066
200@@ 1065
particularly 1065
late 1064
extremely 1063
t-@@ 1063
shed 1060
shing 1059
tre@@ 1058
hel@@ 1058
den@@ 1057
others 1057
coming 1057
sta@@ 1056
or, 1055
cl@@ 1054
fight 1054
obviously 1051
heard 1048
throughout 1047
taking 1046
ach@@ 1046
sto@@ 1045
art 1045
ice 1044
cro@@ 1044
ju@@ 1044
dialogue 1043
fans 1042
light 1042
wal@@ 1042
boring 1041
mc@@ 1041
ger@@ 1040
sing 1039
my@@ 1037
life. 1036
ja@@ 1036
ati@@ 1036
le. 1035
beginning 1035
je@@ 1033
cri@@ 1033
zed 1032
film's 1032
fun@@ 1031
killer 1030
wouldn't 1028
...<br 1027
yes, 1026
sion@@ 1025
feeling 1025
quality 1020
decent 1019
soon 1018
back@@ 1018
gro@@ 1017
bad@@ 1015
re, 1014
er's 1013
ard 1012
lives 1009
watch@@ 1008
itself 1008
tic@@ 1007
ish 1007
hoo@@ 1005
james 1005
ob@@ 1004
good, 1004
friend 1004
bri@@ 1004
ten@@ 1003
save 1003
leave 1003
complete 1001
ser@@ 1000
ent. 998
expect 997
awful 997
dri@@ 997
new@@ 997
amazing 996
th, 995
known 992
s: 990
explo@@ 990
en, 989
enc@@ 988
ment@@ 988
turned 988
attempt 987
run 987
ying 986
you@@ 985
wrong 985
whose 985
thinking 984
writing 984
here, 984
course, 983
usually 983
stop 981
pp@@ 980
picture 980
work@@ 979
town 978
sha@@ 978
ities 977
drama 976
i'll 976
cap@@ 976
cla@@ 976
ve. 975
strong 974
/>in 974
entertaining 973
/>it 971
hour 969
ful@@ 968
iti@@ 967
nu@@ 965
tu@@ 964
guys 962
close 962
ther@@ 961
viewer 960
!! 960
ear@@ 960
ley 960
taken 959
ka@@ 959
inv@@ 958
..@@ 958
ster 957
rat@@ 957
police 956
re. 956
8 956
david 953
cut 953
kill@@ 953
hom@@ 951
life@@ 951
kid@@ 951
af@@ 951
exactly 950
is. 950
told 949
des 948
fr@@ 947
fl@@ 946
fil@@ 945
ters 944
10@@ 943
finds 943
parts 941
in. 940
living 940
re 940
ven@@ 939
it.<br 939
bel@@ 939
wonder 938
car 938
good@@ 936
ham@@ 935
.) 935
ze 934
running 934
screen@@ 934
ite 933
p. 933
movies. 933
somewhat 933
ric@@ 932
robert 932
opening 932
able, 932
/>if 932
ving 931
sho@@ 931
ori@@ 931
acting, 931
number 930
movies, 929
zz@@ 928
ers. 928
here. 926
across 926
way, 926
dre@@ 925
gr@@ 924
cent@@ 923
comm@@ 923
ily 923
none 923
act@@ 923
worse 922
re-@@ 921
says 921
obvious 920
tion@@ 920
direction 920
e) 920
girls 919
well-@@ 919
ones 917
hun@@ 917
using 915
children 914
killed 914
gg@@ 913
due 913
laugh 913
shown 910
major 909
tions 906
ye@@ 906
dd@@ 906
wish 906
ut@@ 906
films, 905
group 905
ally, 905
end, 904
past 902
ended 901
cur@@ 901
des@@ 900
sla@@ 900
ess@@ 898
days 897
end. 896
d's 895
huge 894
pal@@ 894
supporting 894
ents 891
val@@ 891
again, 890
gen@@ 889
shi@@ 889
ici@@ 888
or. 888
sor@@ 885
murder@@ 885
tells 884
ity, 884
....@@ 884
bad. 884
mac@@ 882
ative 882
ble@@ 881
ed.<br 881
hy@@ 880
inten@@ 879
mostly 879
rac@@ 877
stories 876
giving 876
land@@ 876
eng@@ 876
started 875
low@@ 874
ts. 874
but, 873
gener@@ 872
including 871
us@@ 871
ics 871
mil@@ 870
produc@@ 868
point@@ 868
care@@ 868
game 868
th. 868
local 866
however 866
too@@ 866
ile 864
well@@ 864
change 864
6 864
child 864
um@@ 863
call 863
knew 863
female 862
stat@@ 861
that. 861
happy 861
cinema 861
brilliant 861
dar@@ 860
aren't 860
let@@ 859
myself 859
tit@@ 858
nor@@ 858
bring 858
out. 857
whether 856
ton 855
p, 854
writ@@ 854
single 854
o, 854
ited 853
oh 853
ky 853
exc@@ 852
actress 851
0s 851
hor@@ 851
clearly 851
gun@@ 851
heart 850
tly 850
down@@ 850
talking 850
british 850
gri@@ 849
modern 849
hit 848
falls 848
overall 847
happens 846
ently 845
five 844
some@@ 844
real@@ 844
cop@@ 844
sive 843
voice 843
bla@@ 838
dr@@ 838
dro@@ 838
room 836
fact, 835
rel@@ 835
inst@@ 835
actual 834
happen@@ 834
bal@@ 834
involved 833
0 832
character@@ 832
/>there 830
.. 830
musical 830
history 829
?@@ 828
saying 828
mal@@ 828
humor 827
way. 826
key 826
eri@@ 826
sted 825
jack 825
order 822
characters, 821
sti@@ 821
writer 821
ping 819
beyond 819
nam@@ 818
ins 817
easily 816
sel@@ 816
laugh@@ 815
sm@@ 815
198@@ 814
197@@ 814
serious 814
eyes 813
ge. 812
clear 811
mark 811
important 810
lam@@ 810
sexual 810
fla@@ 809
dly 809
matter 808
horrible 808
city 807
miss 807
paul 807
ned 806
bad, 806
upon 806
ani@@ 806
kid 803
nearly 803
relationship 803
play@@ 802
four 802
te 801
again. 800
comic 800
her. 799
ms 799
named 798
?<br 797
s! 797
lots 795
ning 795
ad 794
chance 793
pac@@ 793
out, 793
pas@@ 793
feels 792
similar 791
way@@ 791
needs 791
richard 791
ram@@ 791
rent 789
`@@ 789
ler 789
george 788
appears 787
are@@ 787
released 786
certain 786
s? 786
haven't 786
fu@@ 785
* 785
(i 784
mov@@ 784
fall 784
strange 784
view 784
ys@@ 782
tion. 782
gs 782
a's 782
ie 782
among 781
del@@ 781
ure 781
bas@@ 781
tom 780
bit@@ 779
near 779
moment 779
themselves 778
wn@@ 778
example 778
pan@@ 777
blood 776
boo@@ 776
y) 776
dic@@ 776
what's 775
simple 775
within 774
/>but 774
ming 774
son, 771
but@@ 771
basically 771
sing@@ 770
working 770
self-@@ 769
cou@@ 769
english 769
9 769
fac@@ 767
knows 766
!!! 765
happened 765
murder 764
please 764
danc@@ 764
yed 764
typical 764
sett@@ 762
she@@ 762
slow 762
usual 761
bul@@ 761
sam@@ 761
form@@ 760
thing@@ 759
stay 759
hear@@ 759
romantic 759
also, 759
swe@@ 758
so, 758
fo@@ 758
apparently 758
ction 758
body 758
scen@@ 756
mag@@ 756
form 756
lea@@ 756
hero 756
anim@@ 756
seen. 754
ane 753
interest 752
7 751
stuff 750
movie.<br 750
cam@@ 749
hero@@ 749
ten 746
speci@@ 746
bon@@ 746
plot, 745
0's 745
et 745
mention 745
t.<br 744
kept 744
expect@@ 744
um 743
acted 743
nor 743
ges 743
wit@@ 742
cont@@ 742
ran@@ 742
nic@@ 741
bunch 740
life, 739
land 738
hours 738
boy@@ 737
ey@@ 737
peter 735
films. 735
them@@ 735
showing 735
da 735
song 734
spo@@ 734
brought 734
ct 734
high@@ 734
light@@ 732
shots 732
plan@@ 732
tried 731
ire 731
enti@@ 731
squ@@ 731
fic@@ 730
die 729
add 729
bre@@ 728
sh, 728
!" 727
rit@@ 726
oo@@ 726
middle 726
sum@@ 725
stic 725
ist@@ 725
score 724
pping 723
sad 723
/>and 723
greatest 722
part@@ 721
(as 721
talk 721
daughter 721
/>a 719
him, 719
ances 718
person@@ 718
ann@@ 717
$@@ 717
ment, 717
easy 717
ment. 716
coun@@ 715
sets 715
events 715
possibly 714
pur@@ 713
comp@@ 713
ved 713
ches 713
alone 713
ny 713
hate 713
199@@ 713
prom@@ 712
colle@@ 712
cheap 712
film.<br 712
buy 711
pr@@ 711
tom@@ 711
french 710
wil@@ 710
funny, 710
:@@ 709
yourself 709
entertain@@ 709
who's 709
ars 708
spe@@ 707
eless 707
/>as 707
 707
you've 706
power 706
dist@@ 706
(which 705
famous 705
cted 705
brother 705
ick 704
imagin@@ 704
hand 704
decided 703
han@@ 702
pen@@ 702
ic. 701
tur@@ 698
begins 698
our@@ 698
surprised 697
hear 697
les@@ 696
friend@@ 696
/> 695
class 695
pped 694
clu@@ 694
ched 693
gl@@ 693
though, 692
move 692
head@@ 692
funny. 692
hell 691
', 691
cour@@ 691
sit 690
god 690
ess. 689
up, 689
let's 689
la 688
ack 688
sequence 688
man's 688
learn 687
americ@@ 687
exist@@ 687
annoying 687
telling 687
mak@@ 687
moving 687
ined 686
kno@@ 686
documentary 685
word 685
became 685
tro@@ 684
jokes 684
ban@@ 683
check 683
now, 683
ise 683
reason@@ 682
stand 682
scar@@ 682
ring 681
happen 681
ely 680
experience 679
songs 679
g. 677
ies 677
cal@@ 677
theat@@ 676
ken@@ 676
ds, 675
sun@@ 675
straight 675
dramatic 675
fer@@ 674
mary 674
above 673
coo@@ 673
unfortunately 672
ability 671
dan@@ 671
gore 671
leading 670
genre 670
scrip@@ 669
men@@ 668
cy@@ 668
cool 668
ever@@ 668
air@@ 667
dance 667
avoid 666
unless 666
ki@@ 666
/>it's 666
camer@@ 665
sh. 665
atic 664
els 664
!) 664
ili@@ 663
ben@@ 663
attention 663
ous. 663
cinematography 663
up. 663
japanese 663
scary 663
ell 662
too. 662
rock 662
possible 662
mean@@ 661
lar@@ 661
reality 660
minute 660
husband 659
nat@@ 658
tive 657
chi@@ 657
ner 656
sn@@ 656
tion, 656
violence 655
episodes 654
television 654
roo@@ 654
lady 653
pres@@ 653
shor@@ 653
meets 653
ens 652
gone 652
fy 651
dam@@ 651
flick 650
pun@@ 650
somehow 650
ber 650
rated 649
ff 649
difficult 649
en. 649
thre@@ 649
deal 648
imagine 648
her, 647
unfortunately, 647
loc@@ 647
elements 646
filmed 646
level 645
work. 645
ering 645
(or 644
plain 644
surpri@@ 644
characters. 644
bab@@ 644
lee 643
leaves 643
means 643
poorly 643
figure 643
write 642
eventually 642
fan@@ 642
reading 641
dream@@ 641
keeps 641
lan@@ 639
realize 639
gam@@ 638
this@@ 638
thrill@@ 638
mel@@ 638
that@@ 638
fast 637
killing 637
silly 637
non-@@ 637
ns 637
roles 636
uses 636
character, 635
dev@@ 635
forget 635
pat@@ 635
m. 634
them, 633
ised 633
bs 632
log@@ 632
towards 632
leads 632
kes 631
oscar 631
stu@@ 631
ance, 630
emotional 629
see@@ 629
hold 628
ds. 628
theme 628
pe 627
ism 627
create 627
doubt 626
é@@ 625
disappoint@@ 625
third 625
ance. 625
front 624
forward 623
cho@@ 623
talent 623
whom 623
ef@@ 623
brings 623
oun@@ 621
say, 621
direct@@ 621
him@@ 621
.the 621
ence, 620
pol@@ 620
ement 620
195@@ 620
stage 619
sy@@ 619
ties 619
lif@@ 619
uni@@ 618
hat@@ 618
ality 617
zing 617
personal 617
previous 617
sex@@ 616
de, 615
goo@@ 615
black@@ 615
review 614
flo@@ 614
defin@@ 613
comments 613
problems 613
plac@@ 613
one's 612
plo@@ 612
stra@@ 612
forced 612
ney 612
sal@@ 612
vis@@ 611
stre@@ 611
v 610
novel 610
ce 610
message 610
ter, 609
joe 609
incredibly 609
mystery 608
needed 608
meet 608
fairly 607
n, 607
king@@ 607
enjoyable 607
ar, 607
sol@@ 607
actor@@ 606
ridiculous 605
words 605
ght@@ 605
career 605
ace 604
man. 604
total 604
193@@ 604
d" 603
whatever 603
shes 603
country 603
ast 603
20 603
plenty 603
points 603
dum@@ 603
'. 603
animation 603
feature 602
ately 602
cul@@ 602
") 601
sco@@ 601
m, 601
tale 601
various 600
fied 599
es" 599
better. 598
interested 598
future 597
ack@@ 597
meant 597
leg@@ 596
zombie 596
time@@ 596
herself 595
team 595
pul@@ 594
dat@@ 594
be. 594
ill 594
show. 594
hardly 593
ure@@ 593
review@@ 593
cast@@ 593
writers 593
times, 593
sed. 592
sequences 591
present 591
ll 590
master@@ 589
ching 589
ch, 589
itt@@ 589
music@@ 587
ways 587
loo@@ 587
inc@@ 587
watch. 586
theater 585
begin 585
other@@ 585
who@@ 584
average 583
sounds 583
of@@ 582
trans@@ 582
appear 581
then, 580
fantastic 580
unlike 580
manages 579
follow 579
rate 579
hilarious 579
ford 579
political 578
particular 577
male 577
som@@ 577
sin@@ 577
year@@ 577
insi@@ 576
(a 576
there. 574
bill 574
blo@@ 573
room@@ 573
night@@ 573
?" 573
ast@@ 572
lead@@ 572
dep@@ 572
william 572
lies 572
etc@@ 571
waiting 571
gor@@ 571
thi@@ 570
you. 570
ship 568
viewers 568
weak 568
older 568
tar@@ 567
wait 567
worked 567
ining 567
effort 567
sed, 566
o. 566
predictable 566
filled 566
pic@@ 565
general 565
expecting 565
pay 564
ders 564
/10 564
dr. 564
ek 563
ition 563
edly 562
nature 562
bed 561
ben 560
ats 560
crap 560
cut@@ 560
jud@@ 560
social 560
viewing 560
disc@@ 559
'the 559
hon@@ 559
sil@@ 558
disney 558
work, 557
scenes, 557
reviews 557
sion, 557
a-@@ 556
scene, 556
features 555
s-@@ 554
(who 554
york 554
open 554
attempts 554
bat@@ 554
house@@ 553
subject 552
amount 552
cts 551
simp@@ 550
mentioned 549
eye 549
what@@ 548
antly 548
talented 548
enjoy@@ 548
!!@@ 547
rating 547
deep 547
din@@ 547
own@@ 546
sion. 546
weak@@ 546
unn@@ 545
stand@@ 545
crime 545
s; 544
dy@@ 544
free 544
ess, 544
sorry 544
mer 543
ful, 543
decides 543
heart@@ 543
ered 542
badly 542
win 542
premise 542
fran@@ 542
realistic 541
wing 541
ask 541
return 541
foo@@ 541
que 540
per 540
g, 540
/>"@@ 539
parents 539
cle@@ 539
?) 539
ged 539
rich 538
ig@@ 538
ter. 537
considering 537
co-@@ 537
red@@ 536
read@@ 536
fit 535
stin@@ 534
jok@@ 534
mari@@ 534
season 534
sequ@@ 534
directors 534
law@@ 534
sister 533
wonder@@ 533
convincing 533
dialog 533
it! 533
acts 532
casting 532
expected 532
woo@@ 532
sely 532
grand@@ 532
es' 531
ant, 531
interest@@ 530
break@@ 529
space 529
fighting 529
ago 528
od@@ 528
pure 528
we're 527
wrote 527
compared 527
stic@@ 527
storyline 527
earth 527
ku@@ 526
perfor@@ 526
long@@ 525
b. 525
thing, 525
ach 525
battle 525
comment 525
unique 525
van 525
196@@ 524
portrayed 524
comment@@ 524
sad@@ 524
sees 524
ity@@ 523
thin@@ 523
vel@@ 523
there, 523
ma 523
ments 523
thriller 523
art@@ 522
sting 522
slightly 522
action@@ 522
prov@@ 522
day@@ 521
vely 521
thro@@ 520
sses 520
ch. 520
fails 520
jer@@ 520
soundtrack 519
fail@@ 519
ne 519
deserves 518
sions 518
weird 518
cover 518
teen 517
there@@ 517
admit 517
t's 516
more@@ 516
outside 516
secret 515
tran@@ 514
dull 514
fur@@ 514
e: 513
spent 513
lou@@ 513
hot 513
box 513
ist 513
human@@ 512
oh, 511
ence. 511
ext@@ 511
seri@@ 511
etc. 511
ssi@@ 511
gla@@ 510
differ@@ 510
footage 510
non@@ 510
ver 509
el, 509
power@@ 509
jane 509
biggest 509
memorable 509
sand@@ 508
relea@@ 508
release 508
dog 508
os 508
visual 508
perfectly 508
editing 507
spac@@ 507
atmosphere 507
caught 507
show, 507
inside 506
lim@@ 506
powerful 505
ls 505
flaw@@ 505
people, 505
dol@@ 505
will@@ 505
consider 504
ok 504
recent 504
idio@@ 504
bly 504
large 503
break 503
spend 502
agree 502
years. 502
hell@@ 502
creat@@ 502
oper@@ 502
med 501
suck@@ 501
familiar 501
aw@@ 500
quickly 500
hard@@ 500
popular 500
concer@@ 500
ele@@ 500
rock@@ 500
gay 498
ball 498
actors, 498
lame 498
tain@@ 498
plot. 497
plus 497
science 497
excep@@ 497
dies 497
sci-fi 497
g-@@ 496
indi@@ 496
basic 496
ms. 495
thir@@ 495
odd 495
ray 495
(19@@ 495
argu@@ 494
s.@@ 494
entirely 494
in-@@ 494
graph@@ 493
jan@@ 493
spir@@ 493
right@@ 493
may@@ 493
e! 493
el. 493
period 492
psycho@@ 492
hour@@ 492
great@@ 492
say@@ 492
ght 492
sequel 492
kills 491
following 491
fire 491
runs 491
people. 491
feel@@ 491
/>what 490
seriously 490
neither 490
thing. 490
den 490
y? 490
ever. 490
aring 490
apart 489
continu@@ 489
imp@@ 489
moves 489
made. 488
walk 488
fat@@ 488
o'@@ 488
sar@@ 488
married 487
screenplay 487
voic@@ 487
former 487
animated 487
scre@@ 486
terri@@ 486
result 486
deser@@ 485
western 485
book@@ 485
194@@ 485
affe@@ 485
worth@@ 485
e? 484
ger 484
thy 484
sty@@ 484
missing 483
earlier 483
sli@@ 482
shame 482
comedy, 482
question 482
common 481
cheesy 481
created 481
sl@@ 481
(in 481
disappointed 480
material 480
public 480
sci@@ 480
reali@@ 480
entertainment 480
ry@@ 480
missed 479
setting 479
shar@@ 479
acting. 479
superb 479
ko@@ 479
weren't 478
domin@@ 478
crazy 478
filmmakers 477
pin@@ 477
boys 477
sy 476
ak 476
box@@ 476
("@@ 476
imdb 476
showed 475
fantasy 475
appreciate 475
suddenly 475
said, 475
fore@@ 475
se.<br 474
know@@ 474
leaving 474
mou@@ 474
creepy 474
no, 473
wn 472
starring 472
copy 471
reli@@ 471
happ@@ 471
stal@@ 471
wat@@ 471
valu@@ 471
ator 471
accomp@@ 471
len@@ 470
positive 470
wan@@ 470
nov@@ 470
hollywoo@@ 470
be, 470
beauty 469
sent 469
christmas 469
oni@@ 468
dark@@ 468
conclu@@ 468
on's 468
awa@@ 467
s), 467
blu@@ 467
".<br 467
gun 467
( 467
sit@@ 467
situ@@ 466
after@@ 466
aged 466
recently 465
god@@ 465
believ@@ 465
screen. 464
stor@@ 464
sure, 464
further 464
an. 464
monster 464
decide 464
ken 464
fle@@ 463
scenes. 463
more. 463
tho@@ 463
successful 463
considered 462
list 462
possi@@ 462
credits 462
note 462
baby 462
tem@@ 462
air 462
ale 461
italian 461
mini@@ 461
dream 461
cop 461
cause 461
died 461
hands 460
bo 460
produced 460
mic@@ 460
at. 460
german 460
like@@ 459
ey 459
ssing 459
portrayal 458
30 458
barely 458
involving 458
turning 458
dead@@ 458
carto@@ 457
ow@@ 456
wasted 456
mad@@ 456
too, 455
.... 455
likes 455
funn@@ 455
ideas 455
street 454
confu@@ 454
investig@@ 454
plu@@ 454
character. 454
you, 453
tt 453
hur@@ 453
won 453
day, 452
son's 452
dumb 452
added 452
times. 452
believable 452
look@@ 450
great, 450
improv@@ 450
angel@@ 450
presented 450
incredible 449
makers 449
pleas@@ 449
otherwise 449
tun@@ 449
follows 448
whit@@ 448
ght, 448
beat 448
es) 448
background 447
jack@@ 447
members 447
all-@@ 447
opinion 447
melo@@ 447
ental 446
sexu@@ 446
self@@ 446
utterly 446
lets 446
focus 445
situation 445
bought 445
scott 445
document@@ 445
"i 444
san@@ 444
posed 444
bling 444
cer@@ 444
crew 443
ir 443
run@@ 443
edit@@ 443
ble. 443
glad 443
ss. 443
anti-@@ 443
iness 443
ations. 443
ening 442
doctor 442
pra@@ 441
survi@@ 441
yo@@ 440
series, 440
solid 440
understand@@ 440
remake 440
generally 439
bod@@ 439
first, 439
ans@@ 439
younger 439
side@@ 438
stro@@ 438
worthy 438
cult 438
ultimately 438
thanks 438
ful. 438
****@@ 438
paren@@ 437
stick 437
val 437
e.@@ 437
sitting 436
director@@ 436
follow@@ 436
sat@@ 436
cks 436
sweet 436
sham@@ 436
match 436
made@@ 435
seas@@ 435
role. 435
knowing 435
achiev@@ 435
truth 434
tony 434
sw@@ 433
va@@ 433
s). 433
mad 433
20@@ 433
w. 433
suspense 433
d) 432
cute 432
de. 432
chase 432
15 432
surprise 432
episo@@ 432
l. 432
thank 432
over-@@ 431
er.<br 431
ore 430
steve 430
hum@@ 430
world. 429
oc@@ 429
10. 429
ble, 429
batt@@ 429
horri@@ 429
expressi@@ 428
ations, 428
fra@@ 428
mes@@ 428
adv@@ 428
slasher 428
fir@@ 427
singing 427
jun@@ 427
comb@@ 427
great. 426
ines 426
mun@@ 426
tan@@ 426
potential 426
romance 426
dancing 426
cast, 426
flash@@ 425
satis@@ 425
ok, 425
directing 425
andy 425
intelligent 424
turn@@ 424
/>my 424
twist 424
do. 424
off. 424
scare@@ 424
not. 424
strong@@ 424
laughing 423
rol@@ 423
thinks 423
today 422
managed 422
hin@@ 422
yes 422
movie's 421
bru@@ 421
able@@ 421
day. 420
changed 420
less@@ 420
your@@ 420
speak 420
water 420
ya@@ 420
bom@@ 420
was, 419
bored 419
fli@@ 419
w, 419
adult 419
bol@@ 419
off, 418
pick 418
death@@ 418
ath 418
def@@ 418
tone 418
tension 417
evil@@ 417
effect 416
qui@@ 416
liv@@ 416
impossible 416
chemistry 416
bb@@ 415
ctive 415
/>all 415
ing" 415
book, 415
catch 415
ging 415
escape 414
state 414
force 414
eli@@ 414
itting 414
cool@@ 413
equally 413
ath@@ 413
frank 413
ar. 412
south 412
cold 412
violent 412
sugge@@ 411
effective 411
board 411
comedi@@ 410
fol@@ 410
walking 410
bizarre 410
jim 410
slow@@ 409
military 409
clever 409
one-@@ 409
actions 408
appe@@ 408
respon@@ 408
trouble 408
ze@@ 408
gan@@ 408
dou@@ 407
popul@@ 407
series. 407
computer 407
inspir@@ 406
business 406
ft 406
import@@ 406
tired 406
likely 406
ina 406
indeed 406
zi@@ 406
you'd 405
b, 405
did@@ 405
throw 405
respect@@ 405
pret@@ 405
sam 405
thrown 404
explain 404
alo@@ 404
remains 404
stupid@@ 403
cinematic 403
pla@@ 403
ises 403
ss, 403
surely 402
week@@ 402
flu@@ 402
p-@@ 402
producers 401
aspect 401
hair@@ 401
hill@@ 401
contains 401
historical 401
jum@@ 401
field 401
nobody 400
credit 400
)<br 400
rare 400
later, 399
list@@ 399
an's 399
john@@ 398
strang@@ 398
ers@@ 398
offic@@ 398
years, 398
master 398
silent 398
band 398
thr@@ 397
twist@@ 397
failed 397
much. 397
ure. 397
comedy. 397
hit@@ 397
christopher 397
class@@ 396
hoping 396
acks 396
christ@@ 396
born 396
chan@@ 396
store 395
en's 395
as, 395
still, 395
excuse 395
shooting 395
rob@@ 395
subst@@ 395
choice 395
exciting 395
ph 395
/>one 394
dem@@ 394
us, 394
ghost 394
effect@@ 394
surprisingly 394
ings. 394
moo@@ 394
development 394
trac@@ 394
osc@@ 393
bing 393
not, 393
x, 393
music, 393
lie 393
inspired 392
et, 392
fair 392
held 392
refle@@ 392
respect 392
dition 392
scene. 392
fear 392
cartoon 392
studio 392
experim@@ 391
pit@@ 391
bles 391
involv@@ 391
again@@ 391
success 391
college 391
age@@ 391
ple 390
effor@@ 390
central 390
bac@@ 390
script, 390
demon@@ 390
polit@@ 389
resem@@ 389
to. 389
inger 389
lun@@ 389
ther 388
ana 388
concept 388
office 388
longer 388
together. 388
depth 387
present@@ 387
tional 387
mental 387
constantly 386
gang@@ 386
minor 386
chris 386
ure, 386
anna 386
zombi@@ 385
girlfriend 385
ker@@ 385
disgu@@ 385
deli@@ 385
detail@@ 385
via 385
on-@@ 384
tough 384
spor@@ 384
arri@@ 384
society 384
compla@@ 384
medi@@ 384
immediately 383
ende@@ 383
pass 383
meaning 383
so. 383
ston 383
thought@@ 383
convinc@@ 382
guy@@ 382
how@@ 382
nie 382
plot@@ 382
resul@@ 382
drawn 382
era 382
kar@@ 382
mainly 382
arti@@ 381
know, 381
though@@ 381
/>so 381
acy 381
natural 381
puts 381
brothers 381
ony 381
ings, 380
people@@ 380
deci@@ 380
smo@@ 379
gory 379
law 379
spirit 379
onto 379
don 379
glo@@ 379
sleep@@ 379
line, 379
at, 379
literally 379
trip 379
lor@@ 378
horror@@ 378
dom@@ 378
worl@@ 378
aside 378
acc@@ 378
sty 378
ii@@ 378
stom@@ 377
impressive 377
shoot 377
cat 377
ness@@ 377
brother@@ 376
ant. 376
party 376
charles 376
accep@@ 376
bottom 375
revenge 375
question@@ 375
jon@@ 375
beautifully 375
ages 375
indian 375
ini@@ 374
the-@@ 374
ty, 374
fair@@ 374
wer@@ 374
moved 374
ck, 374
fri@@ 374
loves 374
pieces 374
fred 373
mean, 373
son. 373
wild 373
sters 373
won@@ 373
standard 372
fashi@@ 372
gy 372
mill@@ 371
ra 371
"a 371
naked 371
als, 371
reasons 371
villain 371
was. 370
laughs 370
joke 370
deca@@ 370
billy 370
control 370
hop@@ 370
ese 370
vol@@ 370
ball@@ 369
wrong@@ 369
ery 369
origin@@ 369
ate, 369
harry 369
creep@@ 369
dge 369
bun@@ 367
falling 367
stands 367
questions 367
progre@@ 367
recor@@ 367
appear@@ 367
groun@@ 367
dom 366
somewhere 366
pace 366
l, 366
vir@@ 365
ah 365
director, 365
flat 365
atten@@ 364
nudity 364
int 364
enough, 364
emplo@@ 364
road 364
point, 364
comed@@ 364
action, 364
motion 364
stun@@ 364
company 363
positi@@ 363
amusing 363
que@@ 363
fire@@ 363
ere 362
scienti@@ 362
images 362
cir@@ 362
hasn't 362
fake 362
anyway, 362
ond 362
touch 361
illi@@ 361
y! 361
brilli@@ 361
putting 361
world, 361
best. 361
frustr@@ 361
subtle 361
now@@ 361
suggest 360
do, 360
adaptation 360
heavy 360
/ 360
gh 360
control@@ 360
j 360
sick 360
sens@@ 360
gue 360
sky 360
logical 359
eu@@ 359
ato@@ 358
audienc@@ 358
liter@@ 358
ants 358
photograph@@ 358
pati@@ 358
ves, 358
include 358
an-@@ 358
ness, 358
distr@@ 358
fanta@@ 358
normal 358
merely 358
love, 357
vin@@ 357
us. 357
innocent 357
lik@@ 357
henry 357
!!!!@@ 357
avo@@ 356
terms 356
wo@@ 356
messa@@ 356
fif@@ 356
brief 356
sab@@ 356
america 356
iting 356
consist@@ 356
plan 356
met 356
lacks 356
ction@@ 356
occur@@ 356
gold@@ 356
finding 355
pos@@ 355
ward 355
more, 355
million 355
latter 355
serial 355
disappe@@ 355
tte 355
na 355
pointless 354
detective 354
conne@@ 354
kil@@ 354
willing 354
drug 354
attack 354
marri@@ 354
west 354
wall@@ 354
18@@ 353
either. 353
narr@@ 353
.i 353
ory 353
prison 353
song@@ 352
appeal 352
em 352
(not 352
interesting. 351
00@@ 351
gho@@ 351
army 351
mysterious 351
ai@@ 351
age, 351
sis 351
,and 351
lived 351
ness. 351
dad 351
developed 351
luc@@ 350
ex-@@ 350
amaz@@ 350
motiv@@ 350
impression 350
'll 350
moral 350
example, 350
hen@@ 349
ached 349
shel@@ 349
bloo@@ 348
sent@@ 348
adventure 348
hil@@ 348
proves 348
less, 347
appearance 347
actors. 347
ridicul@@ 347
else@@ 347
paint@@ 347
language 347
net@@ 347
becoming 347
cin@@ 346
spoil@@ 346
bruce 346
secre@@ 346
tell@@ 346
lovely 346
fell 346
main@@ 346
#@@ 346
bir@@ 346
about. 346
ary, 346
fro@@ 346
by@@ 345
slo@@ 345
fright@@ 345
on.<br 345
followed 345
ented 345
paid 345
thus 345
thats 345
lin 345
reminded 345
job@@ 344
absolute 344
king, 344
accent@@ 344
app@@ 344
vil@@ 344
abil@@ 344
fini@@ 344
charlie 344
giant 344
gin@@ 344
age. 343
supposedly 343
sense. 343
villa@@ 343
ric 343
hal@@ 343
here@@ 342
2. 342
ths 342
viol@@ 342
fellow 342
asi@@ 342
sentim@@ 342
beat@@ 341
terrific 341
speaking 341
actor, 341
logi@@ 341
pe, 341
audiences 341
discu@@ 341
provides 341
rang@@ 340
forc@@ 340
adm@@ 340
share 340
-up 340
touching 340
did. 340
...and 339
soul@@ 339
brain 339
ke. 339
flick@@ 339
sle@@ 339
support 339
er-@@ 339
appeared 339
seemingly 339
dad@@ 339
characteri@@ 339
adul@@ 338
ever, 338
mess 338
ia 338
ke, 338
o's 338
graphic 337
suppose 337
yor@@ 337
thoroughly 337
stuff@@ 337
buff@@ 337
weap@@ 337
dan 337
narrative 337
available 337
mom@@ 337
mid@@ 337
mm@@ 337
wre@@ 337
gene 337
fying 337
complex 337
changes 337
jam@@ 336
n. 336
cover@@ 336
ine@@ 336
bil@@ 336
value 335
role, 335
es! 335
alan 335
fun. 335
magic 335
pull 335
green 335
helps 335
impressi@@ 334
books 334
suff@@ 334
premi@@ 334
poss@@ 334
desig@@ 334
fic 334
sey 334
minutes. 334
ade 334
funniest 334
aim@@ 334
eric 334
attr@@ 333
to, 333
half-@@ 333
clim@@ 333
edge 333
hand, 333
dun@@ 333
rented 332
disturbing 332
friend, 332
ams 332
better@@ 332
adds 332
cheap@@ 331
sill@@ 331
with. 331
charming 331
stuck 331
dv@@ 331
polic@@ 331
ther. 331
stone 331
mistak@@ 331
offers 331
syn@@ 331
vampire 331
track 330
step 330
aspects 330
tered 330
sadly 330
six 330
fiel@@ 330
interesting, 330
witch 330
step@@ 330
cti@@ 330
intrigu@@ 330
wood 330
mother@@ 330
aware 330
bran@@ 330
red, 329
cast. 329
effects, 329
wester@@ 329
spa@@ 329
dru@@ 329
shouldn't 329
self 329
blue 329
journey 329
tin@@ 329
picked 329
photo@@ 328
awful. 328
sexy 328
ian 328
wondering 328
mood 328
contr@@ 328
auth@@ 328
sim@@ 328
wol@@ 328
team@@ 328
element 328
deliver@@ 327
painful 327
rey 327
island 327
van@@ 327
arthur 327
close@@ 326
sen 326
ly-@@ 326
themes 326
besides 326
ther, 325
delivers 325
1. 325
hidden 325
ron@@ 325
done. 325
slowly 325
emp@@ 325
row@@ 325
core 325
berg 324
gang 324
winning 324
spi@@ 324
itu@@ 324
ways, 324
dressed 324
brian 324
flying 324
child@@ 324
jerry 324
err@@ 323
camp 323
soldiers 323
minutes, 323
kis@@ 323
mr 323
afric@@ 323
terr@@ 323
opini@@ 322
histor@@ 322
ei@@ 322
susp@@ 322
(with 322
@@ 322
clar@@ 322
chees@@ 322
critics 322
drive 322
ck. 322
yn 322
oned 321
ym@@ 321
sequenc@@ 321
ing-@@ 321
twists 321
redeeming 321
christian 321
government 321
stereo@@ 321
accur@@ 321
zation 321
stephen 321
really, 320
everybody 320
wrong. 320
pictures 320
along@@ 320
credi@@ 320
damn 320
fon@@ 320
chin@@ 320
movie! 320
cau@@ 320
super 320
right, 320
anne 320
instead, 319
negative 319
eye@@ 319
develop@@ 319
stop@@ 319
famil@@ 319
away. 319
noir 319
ase 319
breath@@ 319
carry 318
rage 318
50 318
performance. 318
martial 318
soci@@ 317
perfect@@ 317
zombies 317
agre@@ 317
century 317
lover 317
back. 317
b-@@ 317
lose 317
arm@@ 317
ame 317
neighbor@@ 317
date 316
sick@@ 316
creative 316
travel@@ 316
teenage 316
opportunity 316
appro@@ 316
random 316
likable 316
planet 316
litt@@ 316
presence 315
slu@@ 315
wid@@ 315
personally 315
plic@@ 315
lar 315
physical 315
image 315
grac@@ 315
ron 315
countr@@ 314
gal@@ 314
script. 314
crit@@ 314
time.<br 314
door 314
smith 314
down. 314
culture 314
honest@@ 313
80's 313
gru@@ 313
odd@@ 313
cell@@ 313
mix 313
sons 313
ital 313
presents 313
chap@@ 313
award 313
project 312
s,@@ 312
ah@@ 312
seen, 312
tv@@ 312
intended 312
boring, 312
bill@@ 312
zes 312
ally. 312
subt@@ 312
laughed 311
wearing 311
liber@@ 311
allowed 311
suit@@ 311
recei@@ 311
vic@@ 311
father@@ 311
ready 311
ine, 310
train 310
equ@@ 310
includes 310
house, 310
depic@@ 310
values 310
issues 309
other. 309
pathetic 309
phone 309
fal@@ 309
/>for 309
bits 309
lord 309
gy@@ 309
seven 309
dor@@ 309
nar@@ 308
unbeliev@@ 308
choic@@ 308
devo@@ 308
honestly 308
boring. 308
hilari@@ 308
filming 308
bother 308
self. 308
ka 308
er) 308
favourite 308
broad@@ 307
warn@@ 307
s... 307
row 307
lish@@ 307
ened 307
resol@@ 307
ending. 307
though. 307
yet, 307
threat@@ 307
difference 306
id. 306
shir@@ 306
book. 306
outstanding 306
pper 306
ps, 306
wel@@ 306
thank@@ 306
okay, 306
dish 305
are, 305
compet@@ 305
hair 305
notice 305
now. 305
blood@@ 305
helped 305
pho@@ 305
family. 305
o-@@ 305
wife, 305
position 305
masterpiece 304
movi@@ 304
inform@@ 304
ec@@ 304
impressed 304
fel@@ 304
budge@@ 304
eful 304
compare 304
describe 304
es: 304
fiction 304
artistic 303
lessly 303
low-@@ 303
names 303
ational 303
minut@@ 303
rarely 303
professional 303
stunning 303
less. 302
woman, 302
weir@@ 302
allow 302
ring@@ 302
q@@ 302
memor@@ 302
stret@@ 302
suit 302
displa@@ 302
boar@@ 301
channel 301
before. 301
school@@ 301
recogni@@ 301
plane 301
es? 301
essed 301
&@@ 300
character's 300
(if 300
comple@@ 300
town@@ 300
vac@@ 300
made, 300
right. 300
awesome 300
trash 300
ppy 299
er" 299
attractive 299
mix@@ 299
n'@@ 299
s...@@ 299
humour 299
picture@@ 299
chinese 299
jason 299
compelling 299
table 298
asks 298
fascinating 298
consider@@ 298
ing! 298
pe. 298
listen 298
frank@@ 298
pain@@ 298
refu@@ 298
feelings 298
disa@@ 298
approach 298
stewart 298
x. 298
sni@@ 298
transform@@ 298
student 297
h, 297
with@@ 297
i, 297
ple@@ 297
direct 297
red. 297
overall, 297
tionally 297
apo@@ 297
juli@@ 297
plea@@ 297
fam@@ 297
reminds 297
technical 296
perio@@ 296
build 296
ve-@@ 296
aching 296
smart 296
heal@@ 296
according 296
comedic 296
tragic 295
pers 295
ok@@ 295
geni@@ 295
cry 295
audience. 295
ga 295
color@@ 295
batman 295
ba 295
shock@@ 294
it? 294
sk 294
places 294
zero 294
hall@@ 294
kelly 294
provide 294
comedies 294
fortun@@ 294
vag@@ 294
prote@@ 294
afraid 294
else. 294
deeply 294
original, 294
ought 294
wonderfully 294
page 294
enter 293
anced 293
wise 293
proble@@ 293
capture 293
holds 293
place. 292
??@@ 292
cli@@ 292
case, 292
natur@@ 292
gotten 292
tast@@ 292
victim 292
crimin@@ 292
producer 292
thin 292
through@@ 292
color 292
ils 292
see. 292
ghts 292
religious 292
nau@@ 291
ency 291
loud 291
remember@@ 291
trust 291
level@@ 291
alien 291
desperate 291
trou@@ 291
breaking 291
member 291
club 291
00 291
wanting 290
ing) 290
grade 290
:<br 290
ons, 290
dec@@ 290
jects 290
purpose 290
rand@@ 290
family, 290
creating 290
sev@@ 290
als. 290
fem@@ 290
yeah, 290
preci@@ 290
consci@@ 289
onc@@ 289
father, 289
hotel 289
taste 289
green@@ 289
ket@@ 289
performance, 288
mediocre 288
realized 288
fresh 288
remain@@ 288
enjo@@ 288
pressed 288
gorgeous 288
struggle 288
building 288
aches 288
dated 288
london 288
emer@@ 287
gol@@ 287
skip 287
favorit@@ 287
19@@ 287
incid@@ 287
pre-@@ 287
continue 287
opinion, 287
search 287
inf@@ 287
ham 287
independent 287
ino 287
grou@@ 287
shock 286
actresses 286
ich@@ 286
ale@@ 286
); 286
nowhere 286
nasty 286
sat 286
money. 286
laugha@@ 286
ape 286
excit@@ 286
problem@@ 286
ism, 286
victim@@ 286
ago, 285
double 285
cate@@ 285
kick 285
hood 285
accept 285
animal 285
ride 285
better, 285
toward 285
tim 285
40 284
martin 284
honest 284
itive 284
constru@@ 284
al.<br 284
boun@@ 284
marriage 284
potenti@@ 284
standar@@ 283
ves. 283
one.<br 283
vision 283
woods 283
wood@@ 283
situations 283
intellig@@ 283
pleasant 283
limited 283
roll 283
lac@@ 283
educ@@ 283
sig@@ 283
shi 283
ing? 283
yu@@ 283
?? 283
ses@@ 283
wra@@ 283
rist 283
spar@@ 282
k's 282
danny 282
av@@ 282
bar 282
princi@@ 282
xi@@ 282
shu@@ 282
advent@@ 282
details 282
lad@@ 281
whilst 281
spot 281
(like 281
speak@@ 281
love. 281
bel 281
finally, 281
piec@@ 281
ks, 281
temp@@ 281
fascin@@ 281
offer 280
bio@@ 280
luck@@ 280
disappointed. 280
earth@@ 280
constant 280
deliver 280
sub-@@ 280
thes@@ 280
smil@@ 280
grand 280
answer 279
2) 279
pair 279
seen@@ 279
responsible 279
proper@@ 279
moment@@ 279
cred@@ 279
before, 279
growing 279
dig@@ 279
pathetic@@ 279
girl, 279
s/@@ 278
capable 278
meaning@@ 278
ary. 278
ads 278
count 278
masterpiec@@ 278
sna@@ 278
confused 278
tend@@ 278
dirty 278
night, 278
young@@ 278
/>when 278
100 277
ez@@ 277
conf@@ 277
intense 277
long, 277
dition@@ 277
justice 277
part, 277
extreme 277
land, 277
90 277
emotions 277
suppor@@ 277
gary 277
ster. 277
watch, 277
captain 277
joan 277
annoy@@ 276
himself. 276
starting 276
lau@@ 276
disturb@@ 276
-to-@@ 276
job. 276
relationshi@@ 276
hated 276
six@@ 276
spoo@@ 276
climax 276
featuring 276
., 275
prove 275
plots 275
rever@@ 275
e; 275
justi@@ 275
lish 275
ta 275
thu@@ 275
event@@ 275
edy 275
jean 275
best, 275
genre. 275
for. 275
jeff 275
porn 274
rape 274
queen 274
ed" 274
smi@@ 274
gar 274
cand@@ 274
grace 274
point. 274
quir@@ 274
gging 274
**@@ 274
backgroun@@ 274
concep@@ 274
mes 274
current 274
together, 274
loving 274
information 273
costumes 273
extra 273
christi@@ 273
der, 273
iron@@ 273
miser@@ 273
spl@@ 273
genius 273
rip@@ 273
impact 273
ine. 273
began 273
americans 273
/10. 272
dialogue, 272
normally 272
wer 272
ren 272
soun@@ 272
cliché@@ 272
tty 272
russian 272
notic@@ 272
keeping 272
summer 272
ann 272
sible 271
drama, 271
credit@@ 271
hurt 271
apparent 271
st.<br 271
okay 271
assum@@ 271
prison@@ 271
originally 271
quick@@ 271
lon@@ 271
introduced 271
seg@@ 271
remarkable 271
today's 271
kevin 271
cas@@ 271
photography 270
finished 270
tain 270
like, 270
personal@@ 270
quick 270
hadn't 270
whenever 270
rain@@ 270
pir@@ 270
om. 270
ahead 270
ically, 270
much@@ 270
church 270
factor@@ 269
done, 269
ising 269
a.<br 269
chest@@ 269
blame 269
bloody 269
abu@@ 269
icious 269
jac@@ 269
berg@@ 268
numbers 268
ith 268
refer@@ 268
3. 268
asked 268
animals 268
psych@@ 268
dying 268
sity 268
sou@@ 268
**** 268
execu@@ 268
proved 268
project@@ 268
understanding 268
ash@@ 268
chop@@ 268
ty. 268
mach@@ 268
cinema. 267
lab@@ 267
manage 267
somebody 267
develo@@ 267
cked 267
repor@@ 267
calls 267
students 267
pulled 267
occu@@ 267
repe@@ 267
fits 267
line. 267
kinda 267
tol@@ 266
much, 266
here's 266
trail@@ 266
c. 266
au 266
charm 266
corrup@@ 266
terrible. 266
gradu@@ 266
shoul@@ 266
murders 266
andre@@ 266
manipul@@ 266
iz@@ 265
accent 265
obvi@@ 265
ue 265
use@@ 265
unusual 265
alien@@ 265
saving 265
ism@@ 265
dealing 265
dal@@ 265
soul 265
trailer 265
icked 265
knowledge 265
0s, 265
eddie 265
heads 265
dreams 265
other, 264
ture@@ 264
ate. 264
out.<br 264
loses 264
exception 264
sav@@ 264
qual@@ 264
doct@@ 264
lighting 264
deserve 264
evid@@ 264
week 264
length 264
treated 263
gn@@ 263
we've 263
prev@@ 263
hot@@ 263
cost@@ 263
jes@@ 263
numerous 263
uncle 263
start@@ 263
johnny 263
fight@@ 263
recommended 263
le.<br 262
european 262
world@@ 262
fill 262
superior 262
mixed 262
eless@@ 262
lic 262
curi@@ 261
fron@@ 261
wide 261
dog@@ 261
test 261
ultimate 261
gent@@ 261
!). 261
comman@@ 261
boss 261
act. 260
emotion@@ 260
terrori@@ 260
lights 260
terribly 260
insul@@ 260
discover 260
pract@@ 260
arts 260
private 259
where. 259
flick. 259
identi@@ 259
bled 259
franc@@ 259
les, 259
mission 259
street@@ 259
televi@@ 259
original. 259
academy 259
vide@@ 259
shop@@ 258
/>to 258
scenery 258
langu@@ 258
0s. 258
ough@@ 258
ans, 258
led, 258
ity.<br 258
mistake 258
symbo@@ 258
post-@@ 258
action. 258
ski@@ 258
eating 257
escap@@ 257
nick 257
boyfriend 257
citi@@ 257
bert 257
bal 257
visit 257
disp@@ 257
disappointing 257
international 257
trav@@ 257
anti@@ 257
screen, 257
ur 257
0's. 256
see, 256
anybody 256
sher@@ 256
drop 256
able.<br 256
they've 256
ctions 256
unbelievable 256
mention@@ 256
mani@@ 256
utter 256
opera 256
ot@@ 256
spoilers 256
stunn@@ 256
nomin@@ 256
illa 256
holes 256
dvd. 256
trea@@ 256
indu@@ 255
e' 255
director's 255
returns 255
news 255
smar@@ 255
chann@@ 255
discover@@ 255
kir@@ 255
forgotten 255
addition 255
wast@@ 255
cgi 255
doo@@ 255
treat 255
challeng@@ 255
neg@@ 255
ar-@@ 255
psychological 255
claim 254
finish 254
soldier 254
drin@@ 254
ing: 254
iled 254
struct@@ 254
circumst@@ 254
ssed 254
dialo@@ 254
virgin@@ 254
clever@@ 254
arch@@ 254
ital@@ 254
race 253
noticed 253
emotion 253
base@@ 253
mono@@ 253
lyn@@ 253
-of-@@ 253
aded 253
forces 253
rober@@ 252
70's 252
angry 252
national 252
criminal 252
ally@@ 252
cock@@ 252
es; 252
make@@ 252
wooden 252
s", 252
ator@@ 252
appropriate 252
bond 252
creature 252
deals 252
still@@ 252
fun, 251
allen 251
a" 251
h. 251
(played 251
lower 251
relationships 251
saved 251
location 251
pain 251
ner, 251
/>while 251
exam@@ 251
boy, 251
cliché 251
author@@ 251
dick 251
scientist 251
discovered 251
therefore 250
soundtrack@@ 250
/>i'm 250
t.@@ 250
(for 250
eat 250
think@@ 250
wow@@ 250
s--@@ 250
golden 250
suspect@@ 250
program@@ 250
genuinely 250
gie 250
rise 249
bility 249
brutal 249
demonstr@@ 249
bes@@ 249
portray 249
cry@@ 249
ction. 249
touch@@ 249
pon@@ 249
adam 249
mut@@ 248
camp@@ 248
passed 248
agent 248
mur@@ 248
pop 248
grew 248
contra@@ 248
lucky 248
beau@@ 248
promo@@ 248
united 247
gott@@ 247
talent@@ 247
low-budget 247
who, 247
pric@@ 247
content 247
uninten@@ 247
kate 247
rid 247
guar@@ 247
broken 247
harri@@ 247
desire 247
chil@@ 247
sist@@ 247
mul@@ 247
chur@@ 246
ation.<br 246
sem@@ 246
adults 246
standing 246
no-@@ 246
bak@@ 246
affair 246
friends, 246
mind. 246
higher 246
mirr@@ 246
vivi@@ 246
sheer 246
traditional 246
examp@@ 246
sign 246
mike 246
surprising 246
e), 246
with, 245
lying 245
driving 245
wall 245
unable 245
allows 245
sight 245
need@@ 245
house. 245
environ@@ 245
paris 245
regular 245
even@@ 245
childhood 245
over, 245
hopes 245
mum@@ 245
fact@@ 244
belief@@ 244
mess@@ 244
sof@@ 244
kni@@ 244
clau@@ 244
scared 244
quo@@ 244
anthony 244
gas 244
wand@@ 243
itch@@ 243
/10@@ 243
scenari@@ 243
in's 243
ground 243
deman@@ 243
expectations 243
husband@@ 243
jimmy 243
alive 243
eas@@ 243
onic 243
faces 243
qua@@ 243
ww@@ 243
related 242
them.<br 242
ton, 242
event 242
myster@@ 242
fan, 242
ima@@ 242
before@@ 242
ep 242
blin@@ 242
creates 242
revol@@ 242
duc@@ 242
stly 242
discovers 242
alist 242
aff@@ 242
dge@@ 242
finest 242
rob 242
confusing 241
sean 241
moments, 241
-like 241
wrong, 241
deserved 241
epic 241
word@@ 241
play, 241
castle 241
shocking 240
collection 240
y'@@ 240
fram@@ 240
short, 240
food 240
suspect 240
bringing 240
opens 240
continues 240
hits 240
cc@@ 240
ugly 240
gged 240
ely, 240
seconds 240
*** 240
mom 240
st-@@ 240
oli@@ 240
ending, 240
water@@ 240
pot@@ 239
awar@@ 239
bigger 239
materi@@ 239
gonna 239
compani@@ 239
learned 239
breaks 239
victims 239
dul@@ 239
jump 239
essentially 239
grin@@ 239
days. 239
accurate 239
cops 239
geor@@ 239
le-@@ 239
dangerous 239
robo@@ 239
today. 239
ght. 238
desi@@ 238
down, 238
celebr@@ 238
classic@@ 238
hey, 238
guy, 238
bum@@ 238
mas@@ 238
't. 238
music. 238
bren@@ 238
"<br 238
back, 238
viewed 237
dest 237
1, 237
seriously, 237
encoun@@ 237
twice 237
drun@@ 237
stum@@ 237
craz@@ 237
jones 237
serv@@ 237
cinema@@ 237
proceed@@ 236
awful, 236
blockbu@@ 236
ran 236
guil@@ 236
happening 236
media 236
mol@@ 236
suc@@ 236
straight@@ 236
broo@@ 236
studio@@ 236
fights 236
med@@ 236
absur@@ 236
radio 236
prince 236
tou@@ 235
plau@@ 235
kell@@ 235
fer 235
performances, 235
unknown 235
foun@@ 235
ura 235
through. 235
societ@@ 235
lished 235
edi@@ 235
bright 235
ture 235
12 235
11 235
chu@@ 235
forgettable 235
powers 235
test@@ 235
aa@@ 235
davi@@ 235
german@@ 235
roun@@ 235
ass 234
design 234
altern@@ 234
nin@@ 234
experienc@@ 234
ica 234
whe@@ 234
ya 234
."<br 234
com 234
donald 234
addic@@ 234
nicely 234
which, 233
woul@@ 233
painfully 233
iding 233
faul@@ 233
om, 233
comfor@@ 233
depart@@ 233
gil@@ 233
indic@@ 233
euro@@ 233
majority 233
explained 233
jennifer 233
;@@ 233
verse 233
station 233
necessary 233
rep@@ 233
vy 233
soap 233
influ@@ 233
ute 233
critic@@ 233
expo@@ 233
steven 233
d'@@ 233
steal 233
im 233
hospital 233
cen@@ 232
garbage 232
received 232
sno@@ 232
year-old 232
costum@@ 232
butt@@ 232
subtit@@ 232
to-@@ 232
stock 232
evol@@ 232
et. 232
ely. 232
introduc@@ 232
festival 232
night. 232
practically 232
barbara 232
skin@@ 231
rup@@ 231
ded. 231
caused 231
(but 231
secon@@ 231
sinc@@ 231
adverti@@ 231
daugh@@ 231
é 231
overly 231
are. 231
teacher 231
sym@@ 231
does@@ 231
foot 231
deb@@ 231
heaven@@ 231
ignor@@ 231
eve 231
doub@@ 231
douglas 231
sear@@ 230
imd@@ 230
sudden 230
seem@@ 230
reach 230
lowing 230
ided 230
d! 230
hill 230
vari@@ 230
2, 230
hope@@ 230
bby 230
scoo@@ 230
direction, 230
purpo@@ 229
(although 229
filmmak@@ 229
joy 229
side, 229
burn@@ 229
sense, 229
bet 229
send 229
confron@@ 229
0% 229
hang@@ 229
inevit@@ 229
shy 229
anyway@@ 229
spanish 229
a) 229
captured 229
place, 229
appreci@@ 229
(even 229
pleasure 229
heroes 229
judge 229
ism. 228
bob 228
fall@@ 228
twenty 228
bet@@ 228
fail 228
univers@@ 228
dramat@@ 228
blonde 228
ly.<br 228
conclusion 228
personality 228
round 228
delightful 228
something@@ 228
wher@@ 228
typ@@ 228
vampi@@ 228
manner 228
fox 228
williams 228
where, 227
inte@@ 227
rence 227
states 227
away, 227
conflic@@ 227
apartment 227
wed 227
engaging 227
success@@ 227
dynam@@ 227
n't. 227
blan@@ 226
occasionally 226
hack@@ 226
aver@@ 226
covered 226
entertaining. 226
ago. 226
protagonist@@ 226
brea@@ 226
individu@@ 226
ated, 226
commun@@ 226
style, 226
descri@@ 226
system 226
genuine 226
ky@@ 226
press 226
bud@@ 225
walks 225
gain 225
cross 225
lacking 225
ried 225
native 225
connection 225
performances. 225
contri@@ 225
area 225
ately, 225
cuts 225
mouth 225
loose 225
fies 225
play. 225
s". 225
movie? 225
disne@@ 225
commentary 225
crappy 224
filmmaker 224
sadly, 224
earli@@ 224
tears 224
@@ 224
blown 224
over. 224
guess@@ 224
assass@@ 224
foreign 224
wrest@@ 224
men, 224
video@@ 224
issue 224
build@@ 224
number@@ 224
largely 224
effects. 224
intriguing 224
ly) 224
ated. 224
laughter 224
energy 224
t) 224
die@@ 224
ny@@ 223
graphy 223
obsessed 223
price 223
losing 223
enough. 223
horr@@ 223
me.<br 223
--and 223
band@@ 223
of. 223
portray@@ 223
range 223
jay 223
himself, 223
high-@@ 223
proper 223
famili@@ 223
santa 223
ancient 223
nightmare 223
ven 223
trilo@@ 223
destro@@ 223
blind 223
lev@@ 223
tarzan 223
ups 222
relate 222
e). 222
ative, 222
logy 222
wife@@ 222
watching. 222
culture@@ 222
reviewers 222
involves 222
quiet 222
described 222
thum@@ 222
itali@@ 222
ella 222
industry 222
pau@@ 222
tal 221
ide 221
humor@@ 221
built 221
budget, 221
ick, 221
grant 221
drama@@ 221
bute 221
ssy 221
aling 221
kidnap@@ 221
west@@ 221
answer@@ 221
alexand@@ 221
kat@@ 221
order@@ 221
led. 221
des, 221
mysteri@@ 221
learns 221
ko 221
asking 220
site 220
extra@@ 220
enthusi@@ 220
laughable 220
grown 220
pacing 220
comfortable 220
long. 220
unnecessary 220
crow@@ 220
tam@@ 220
job, 220
.....@@ 220
novel@@ 220
pow@@ 220
roy@@ 220
ster, 220
remembered 220
"), 220
1) 219
part. 219
misc@@ 219
ound 219
death. 219
history. 219
grat@@ 219
convic@@ 219
shop 219
pregn@@ 219
why? 219
ons. 219
serves 219
portraying 219
pretentious 218
ed) 218
clothes 218
,but 218
develop 218
edited 218
humans 218
cher 218
bow@@ 218
fly 218
figh@@ 218
cent 218
stoo@@ 218
morgan 218
,the 218
daniel 218
ordinary 217
rab@@ 217
/>overall, 217
expen@@ 217
los 217
ences 217
manag@@ 217
suffering 217
ea@@ 217
ed! 217
devil@@ 217
davis 217
war, 217
moder@@ 217
money, 217
fat 217
drama. 217
picture. 217
lock 217
matri@@ 217
detail 217
ed-@@ 217
ero@@ 216
sne@@ 216
passion 216
shadow@@ 216
produce 216
empty 216
tragedy 216
necessarily 216
scor@@ 216
arity 216
till 216
aries 216
face. 216
captures 216
superman 216
pick@@ 216
bland 215
daughter@@ 215
ha 215
,' 215
?! 215
below 215
mexic@@ 215
wy@@ 215
accu@@ 215
cial 215
tend 215
anno@@ 215
roles. 215
holi@@ 215
fy@@ 215
monster@@ 215
theatre 215
nichol@@ 215
actor. 215
director. 215
itself, 215
set@@ 215
admir@@ 215
belief 215
loy@@ 215
brilliantly 215
pursu@@ 214
vhs 214
poe@@ 214
les. 214
driven 214
(especially 214
jackson 214
spoilers@@ 214
spre@@ 214
robb@@ 214
bank 214
estab@@ 214
di 214
violence, 214
pilot 214
screaming 214
ution 214
months 214
believes 214
spoiler 214
holding 214
***@@ 214
scream@@ 214
charism@@ 214
ling@@ 214
visually 214
sister@@ 214
so-@@ 214
intelligence 214
dil@@ 214
hearing 213
ement@@ 213
old, 213
way.<br 213
joseph 213
ded, 213
virtually 213
actu@@ 213
metho@@ 213
portrays 213
strongly 213
focu@@ 213
days, 213
choose 213
wedding 213
mature 213
(though 213
fish@@ 213
games 213
ish@@ 213
quest 213
around. 213
dir@@ 212
requi@@ 212
feature@@ 212
sell 212
version@@ 212
serve 212
beginn@@ 212
classic. 212
public@@ 212
equi@@ 212
gangster 212
/>you 212
chill@@ 212
chy 212
hoff@@ 212
si 212
endless 211
legend 211
embarrass@@ 211
grow 211
contain@@ 211
rec@@ 211
lines, 211
forever@@ 211
walter 211
re.<br 211
zo@@ 211
others. 211
ities. 211
record 211
centur@@ 211
jected 211
remark@@ 211
served 211
realism 211
awesom@@ 211
sympathetic 210
park 210
): 210
rout@@ 210
attack@@ 210
cting 210
ing; 210
rin@@ 210
issu@@ 210
death, 210
represent@@ 210
combination 210
themsel@@ 210
rio@@ 210
begin@@ 210
friend. 210
flicks 210
nominated 210
drag@@ 210
folks 210
steals 210
feat@@ 210
unexpected 210
study 209
dry 209
lack@@ 209
land. 209
asian 209
eth@@ 209
lit@@ 209
assume 209
ket 209
gon@@ 209
rap@@ 209
absurd 209
curious 209
ludicr@@ 209
wind 209
tiny 209
ama@@ 209
original@@ 209
??? 209
sure. 209
brain@@ 209
explanation 209
atmosp@@ 209
emotionally 209
experienced 209
watchable 208
robin 208
atroci@@ 208
flaws 208
4. 208
ve.<br 208
eag@@ 208
inted 208
relatively 208
gratuitous 208
initial 208
home, 208
+ 208
go, 208
gem 208
mitch@@ 208
victor 208
mind@@ 207
model@@ 207
marry 207
indeed, 207
sign@@ 207
included 207
drunk 207
player 207
deep@@ 207
itself. 207
travel 207
placed 207
thomas 207
destru@@ 207
awkward 207
horse 207
arly 207
res, 207
0's, 207
lake 207
lied 207
saturday 207
fantast@@ 207
gand@@ 207
road@@ 206
half@@ 206
warri@@ 206
convinced 206
crap. 206
non 206
ligh@@ 206
mal 206
second@@ 206
theatrical 206
post 206
magnificent 206
meeting 206
az@@ 206
faith 206
gyp@@ 206
charm@@ 206
cameo 206
jen@@ 206
reason, 206
matt 206
references 205
corn@@ 205
crap@@ 205
memories 205
memory 205
landsc@@ 205
cham@@ 205
today, 205
brief@@ 205
wr@@ 205
pet 205
irs 205
inher@@ 205
destroy 205
humor, 205
taylor 205
pless 205
awful@@ 205
stopped 204
head. 204
excell@@ 204
´@@ 204
artist 204
anything. 204
succ@@ 204
ruined 204
types 204
him.<br 204
exagger@@ 204
system@@ 204
marks 204
stewar@@ 204
13@@ 204
yl@@ 204
chuck@@ 204
money@@ 204
unfol@@ 204
tak@@ 204
funni@@ 204
players 204
san 204
journ@@ 204
,000 203
ail@@ 203
bott@@ 203
behavi@@ 203
wait@@ 203
reviewer 203
beautiful, 203
patrick 203
/>not 203
bes 203
delivered 203
deni@@ 203
chosen 203
versions 203
stars. 203
canadian 203
ambiti@@ 203
"what 203
cage 203
coul@@ 203
very, 203
machine 203
(200@@ 203
defe@@ 203
la, 203
war. 203
nightma@@ 203
"). 202
woody 202
direc@@ 202
mine 202
hanging 202
wn, 202
f, 202
lef@@ 202
reg@@ 202
jesus 202
jung@@ 202
anned 202
(it 202
smile 202
miles 202
movie-@@ 202
!!!! 202
wido@@ 202
drew 202
suspen@@ 202
remain 202
freddy 202
kore@@ 202
moon 201
ette 201
ladies 201
soldi@@ 201
homo@@ 201
stupid, 201
t" 201
!), 201
worse. 201
empha@@ 201
spoiler@@ 201
n's 201
claims 201
rog@@ 201
dress 201
buil@@ 201
eight 201
ject 201
small@@ 200
mate 200
benef@@ 200
perfe@@ 200
scot@@ 200
version, 200
dialogu@@ 200
simon 200
belong@@ 200
leng@@ 200
jackie 200
ements 200
q 200
philosoph@@ 200
about, 200
wear 200
tage 200
loss 200
reaction 200
paced 200
nur@@ 200
roy 200
captiv@@ 200
che 200
compar@@ 199
/>even 199
80s 199
horribly 199
conflict 199
then@@ 199
torture 199
note@@ 199
lives. 199
1/@@ 199
possible. 199
chester 199
production. 199
/>at 199
ensu@@ 199
ids 199
-f@@ 199
tta 199
whoever 198
sul@@ 198
clin@@ 198
open@@ 198
.' 198
spoil 198
of, 198
wea@@ 198
py@@ 198
around, 198
flick, 198
transl@@ 198
actually, 198
recomm@@ 198
kong 198
afterno@@ 198
sleep 198
leon@@ 198
stil@@ 198
j. 198
mother, 198
thor@@ 198
sing. 198
albert 198
revel@@ 198
carri@@ 198
figured 198
satisfying 198
communic@@ 198
regi@@ 198
bed@@ 198
han 198
least, 197
murdered 197
mrs. 197
thom@@ 197
on) 197
eat@@ 197
terrible, 197
cant 197
all.<br 197
worse, 197
heroine 197
provided 197
correct@@ 197
significant 197
nel@@ 197
hide 197
insult 197
vers@@ 197
suffers 197
suicide 197
well.<br 197
brit@@ 197
year. 197
appealing 197
corpor@@ 197
gad@@ 197
haw@@ 197
...i 196
themselves. 196
milli@@ 196
mirac@@ 196
hearted 196
shoo@@ 196
rela@@ 196
compell@@ 196
ler's 196
faced 196
spite 196
poign@@ 196
underrated 196
clean@@ 196
teen@@ 196
(at 196
views 195
dimen@@ 195
bag@@ 195
latest 195
ski 195
would've 195
ious 195
par 195
difficul@@ 195
...but 195
talks 195
chief 195
d? 195
soft 195
wars 195
author 195
focused 195
(he 195
titan@@ 195
leader 195
ii 195
conve@@ 195
lugo@@ 195
cable 194
ghty 194
confid@@ 194
ax@@ 194
cke@@ 194
nex@@ 194
does. 194
irish 194
we'@@ 194
rescue 194
reven@@ 194
scare 194
tee@@ 194
icks 194
drugs 194
schem@@ 194
writing, 194
californi@@ 194
tech@@ 194
serious@@ 194
sulliv@@ 194
surviv@@ 194
werewolf 194
u.s. 193
subject@@ 193
igno@@ 193
shoot@@ 193
sports 193
inde@@ 193
/>some 193
tack@@ 193
partner 193
ural 193
/>now 193
directly 193
per, 193
talents 193
dict@@ 193
/>however, 193
uring 193
simil@@ 193
contemporary 193
roger 193
civili@@ 193
overwhel@@ 193
thers 193
witch@@ 193
zen 193
grapher 193
effecti@@ 193
luke 193
ander@@ 192
1st 192
multi@@ 192
concei@@ 192
chose 192
justic@@ 192
off-@@ 192
lion 192
walked 192
ruin 192
commerci@@ 192
mid-@@ 192
cutting 192
anyway. 192
villain@@ 192
-and-@@ 192
/>on 192
seless 192
tex@@ 192
ship@@ 192
5. 192
warm 192
strength 192
atmospher@@ 192
anywhere 192
70s 192
cinema, 192
web@@ 192
/>after 192
about@@ 192
essential 192
keaton 192
colum@@ 191
nothing. 191
_@@ 191
moon@@ 191
understood 191
y; 191
unfortunate 191
typic@@ 191
lesson 191
post@@ 191
lay@@ 191
source 191
realizes 191
moments. 191
dimensional 191
promising 191
movies@@ 191
door@@ 191
walk@@ 191
acking 191
officer 191
occasional 191
member@@ 191
port@@ 191
real. 191
jeff@@ 191
competent 190
shak@@ 190
river@@ 190
irrit@@ 190
union 190
diti@@ 190
want@@ 190
morning 190
adding 190
football 190
inner 190
humorous 190
cle 190
nostal@@ 190
face, 190
bron@@ 190
draw 190
nol@@ 190
f. 190
ordin@@ 190
revealed 189
remotely 189
wards 189
boat 189
australian 189
disappointment 189
d.@@ 189
opportun@@ 189
betra@@ 189
model 189
while, 189
dubbed 189
ten. 189
genre, 189
sophistic@@ 189
friends. 189
lovers 189
pier@@ 189
pic 189
erie 189
changing 189
pay@@ 189
tele@@ 189
predic@@ 189
brid@@ 189
resi@@ 189
ore@@ 189
parody 189
i.e. 189
dvd, 189
sequel@@ 189
repeated 188
respe@@ 188
go. 188
obsc@@ 188
skill@@ 188
prob@@ 188
ry, 188
zer@@ 188
reason. 188
gags 188
struggling 188
bound 188
sex, 188
cinematography, 188
guns 188
mus@@ 188
hes@@ 188
commercial 188
spends 188
5, 188
kinds 188
var@@ 188
home@@ 188
broadway 188
haunted 188
kim 188
elling 188
shall 188
segment 188
story.<br 187
two-@@ 187
figu@@ 187
offici@@ 187
quar@@ 187
excited 187
brook@@ 187
assist@@ 187
/>of 187
individual 187
gran@@ 187
opposite 187
encou@@ 187
esca@@ 187
ight 187
gan 187
whatso@@ 187
mea@@ 187
wit 187
ac 187
visu@@ 187
hong 187
cous@@ 187
von 187
imagination 187
man" 187
faithful 187
i. 187
necessar@@ 186
libr@@ 186
y: 186
massive 186
featured 186
pile 186
massac@@ 186
1/2 186
rul@@ 186
tren@@ 186
vehicle 186
multiple 186
imager@@ 186
exploitation 186
isol@@ 186
fox@@ 186
dram@@ 186
downright 186
ared 186
craf@@ 186
carn@@ 186
resid@@ 186
id, 186
code 186
howard 186
depicted 186
louis 186
itation 185
jeal@@ 185
conv@@ 185
seduc@@ 185
singer 185
lousy 185
(199@@ 185
owner 185
ner. 185
disaster 185
gold 185
coherent 185
mark@@ 185
sever@@ 185
true, 185
villains 185
process 185
edward 185
gas@@ 185
unfunny 185
convince 185
tting 185
comic@@ 185
experience. 185
own. 185
ison 185
stupid. 185
tremend@@ 185
decision 185
indul@@ 185
ada 185
veteran 185
dur@@ 185
shot, 185
chor@@ 185
illu@@ 185
handled 185
business@@ 185
ris 185
laure@@ 185
attrac@@ 184
program 184
3) 184
closer 184
divor@@ 184
sing, 184
sele@@ 184
toler@@ 184
pal 184
mountain@@ 184
grab@@ 184
speed 184
stress 184
bear 184
tering 184
smoo@@ 184
hopefully 184
village 184
ight@@ 184
explor@@ 184
rings 184
mind, 184
ove 184
debut 184
mented 184
results 184
hyster@@ 184
ener@@ 184
ador@@ 184
haunting 184
call@@ 183
paying 183
shallow 183
ke's 183
river 183
y' 183
bid@@ 183
devil 183
pulls 183
forever 183
monsters 183
adapt@@ 183
13 183
element@@ 183
0, 183
tion.<br 183
meta@@ 183
istic 183
tab@@ 183
bourne 183
shin@@ 183
deadly 183
vin 183
fu 183
chas@@ 182
starred 182
/>then 182
stori@@ 182
tie 182
claimed 182
clichés 182
v. 182
mechan@@ 182
fav@@ 182
satire 182
dozen 182
pack@@ 182
marke@@ 182
chick 182
ps. 182
z, 182
le's 182
pid@@ 182
handsome 182
hard-@@ 182
unlikely 182
writer/@@ 182
activ@@ 182
streets 182
recognize 182
things. 182
max 182
vs. 182
consi@@ 182
aust@@ 182
champi@@ 182
burn 181
vote 181
'd 181
adequ@@ 181
dos 181
ancy 181
bear@@ 181
explains 181
daughter, 181
tv. 181
he'd 181
retar@@ 181
speaks 181
know. 181
frame 181
/>that 181
alex 181
something. 181
community 181
passing 181
cess@@ 181
accidentally 181
nancy 181
doll@@ 181
did, 181
critical 181
evidence 181
manner@@ 181
skills 181
anda 181
peac@@ 181
context 181
focuses 181
urb@@ 181
legendary 181
tions, 180
antoni@@ 180
inha@@ 180
cost 180
stud@@ 180
emo@@ 180
heav@@ 180
beginning, 180
omin@@ 180
ident@@ 180
ong@@ 180
fashion 180
canni@@ 180
designed 180
episode. 180
survive 180
doubt@@ 180
exact 180
spin@@ 180
's, 180
angle 180
episode, 180
words, 180
enced 180
ser 180
fren@@ 180
menac@@ 180
reveals 180
sell@@ 180
grant@@ 179
witty 179
actress@@ 179
appall@@ 179
free@@ 179
stayed 179
naive 179
children, 179
ja 179
/>don't 179
jon 179
future@@ 179
3, 179
stays 179
recall 179
marie 179
key@@ 179
mere 179
seriously. 179
tch@@ 179
chick@@ 179
baseball 179
security 179
london@@ 179
brand@@ 179
humor. 179
provo@@ 179
audi@@ 179
chan 179
locked 178
zar@@ 178
ridiculous. 178
buck@@ 178
advice 178
stuff. 178
intr@@ 178
film-@@ 178
obnoxi@@ 178
bour@@ 178
vel 178
offered 178
hart@@ 178
version. 178
buddy 178
anyway 178
techniqu@@ 178
think, 178
witness 178
act, 178
prof@@ 178
/>another 178
long-@@ 178
friendship 178
influence 178
north 178
identity 178
center 178
regard 178
ased 178
birth@@ 178
labor@@ 178
cars 178
infe@@ 178
cket 178
spectacular 178
rose 178
east@@ 178
four@@ 177
lewis 177
dark, 177
ement. 177
mers 177
erotic 177
outrage@@ 177
wn. 177
train@@ 177
ef 177
warning 177
lesbian 177
ted, 177
regarding 177
urban 177
ures 177
res. 177
counter@@ 177
father's 177
art. 177
magaz@@ 177
written, 177
tape 177
stated 177
favor 177
and/or 177
exper@@ 177
philli@@ 177
amateur 176
love@@ 176
fate 176
aka 176
alread@@ 176
tions. 176
ating. 176
a.@@ 176
hilarious. 176
const@@ 176
craw@@ 176
chased 176
sympa@@ 176
come. 176
gore, 176
exist 176
signed 176
zz 176
10/10 176
0'@@ 176
contrast 176
scream 176
/>we 176
sheriff 176
cameo@@ 176
adventures 176
audience, 176
short@@ 176
tes@@ 176
plans 176
alle@@ 176
lincol@@ 176
phan@@ 176
denti@@ 176
no. 175
shocked 175
particul@@ 175
vity 175
clue 175
hired 175
girl. 175
ext 175
insan@@ 175
ading 175
windo@@ 175
blat@@ 175
guarante@@ 175
trek 175
instead. 175
reminiscent 175
nab@@ 175
facial 175
(198@@ 175
gilli@@ 175
president 175
self, 174
good-@@ 174
destin@@ 174
guilty 174
arre@@ 174
swit@@ 174
semi-@@ 174
europe@@ 174
first. 174
excellent. 174
stars, 174
choo@@ 174
spectac@@ 174
predict@@ 174
logic 174
ffe@@ 174
apart@@ 174
neu@@ 174
autom@@ 173
il, 173
imit@@ 173
elev@@ 173
ich 173
either@@ 173
research 173
enh@@ 173
listening 173
regar@@ 173
pity 173
ong 173
safe@@ 173
birth 173
luck 173
ways. 173
intim@@ 173
laun@@ 173
lap@@ 173
else, 173
nicol@@ 173
lo 173
african 173
oliver 173
sourc@@ 173
net 173
revolu@@ 173
carp@@ 173
hay@@ 173
touches 172
cel@@ 172
detecti@@ 172
brad 172
inclu@@ 172
rolling 172
num@@ 172
clima@@ 172
training 172
accident 172
cab@@ 172
termin@@ 172
peri@@ 172
behavior 172
iro 172
heavily 172
lic@@ 172
head, 172
reveal 172
father. 172
desperately 172
mainstream 172
stac@@ 172
washington 172
trage@@ 172
ano 172
trium@@ 172
kan@@ 172
meanwhile, 172
depressing 171
craft 171
% 171
prior 171
sounded 171
this.<br 171
hide@@ 171
guy. 171
home. 171
dies, 171
excellent, 171
ug@@ 171
affair@@ 171
young, 171
ators 171
treatment 171
art, 171
tted 171
4, 171
realist@@ 171
attitude 171
claim@@ 171
regret 171
succe@@ 171
install@@ 171
throwing 171
universal 171
anime 171
formula@@ 171
trapped 171
deliber@@ 171
buying 171
sea 171
dean 171
x-@@ 171
rist@@ 171
people's 171
prepared 170
greater 170
chron@@ 170
previously 170
atory 170
ones. 170
/>with 170
calling 170
stab@@ 170
sorts 170
repet@@ 170
freak@@ 170
corny 170
spy 170
market 170
relevant 170
load 170
sympathy 170
disagre@@ 170
ir, 170
helping 170
le) 170
.it 170
humanity 170
facts 170
youth 170
0. 170
pum@@ 170
seek 170
poor@@ 170
or's 170
woman@@ 170
woun@@ 170
lil@@ 170
appreciated 170
nothing@@ 169
others, 169
fault 169
incor@@ 169
amazed 169
together@@ 169
formula 169
just@@ 169
welcome 169
passion@@ 169
horror, 169
friday 169
combined 169
deal@@ 169
st" 169
`s 169
festiv@@ 169
hunt 169
join 169
seat 169
bodies 169
wwi@@ 169
hitler 169
son) 169
za 169
supernatural 169
neth 169
kung 169
sb@@ 169
seag@@ 169
cultural 168
rhy@@ 168
standards 168
braz@@ 168
dreadful 168
bothered 168
fictional 168
haun@@ 168
foot@@ 168
pes 168
predictable, 168
fe 168
jar@@ 168
drag 168
things, 168
notorious 168
production, 168
acting@@ 168
women, 168
eigh@@ 168
costume 168
der. 168
entertainment. 168
rebel@@ 168
clean 168
could've 168
rely 168
ks. 168
ros@@ 168
career. 168
emma 168
conven@@ 168
dennis 168
spiritu@@ 168
vul@@ 167
this? 167
pop@@ 167
searching 167
picks 167
ced@@ 167
comprehen@@ 167
touched 167
patr@@ 167
magical 167
purely 167
voices 167
abandoned 167
subsequ@@ 167
glori@@ 167
immedi@@ 167
bin@@ 167
analy@@ 167
daw@@ 167
wayne 167
convers@@ 167
ters, 167
surf@@ 167
depiction 167
appropri@@ 167
nowa@@ 167
parker 167
prefer@@ 167
religi@@ 167
horrible. 166
anger 166
duce 166
over-the-top 166
blow 166
fit@@ 166
halfway 166
mess. 166
section 166
(including 166
25 166
express 166
ward@@ 166
y). 166
children's 166
ficial 166
bern@@ 166
rip-@@ 166
obje@@ 166
conspir@@ 166
embarrassing 166
orial 166
psychiat@@ 166
cow@@ 166
prime 166
ured 166
super-@@ 166
cy 166
end.<br 166
yan@@ 166
ites 166
assa@@ 166
crack@@ 166
aging 166
friendly 166
awards 166
7. 165
true. 165
virtu@@ 165
beck@@ 165
irritating 165
print 165
pse 165
ban 165
product 165
nt 165
ignore 165
comparis@@ 165
sensitive 165
william@@ 165
fare 165
tish 165
alism 165
throws 165
extre@@ 165
ands 165
swim@@ 165
pub@@ 165
noneth@@ 165
kov@@ 165
skin 165
required 165
feet 165
beloved 165
hang 165
rub@@ 165
leslie 165
sinatra 164
fles@@ 164
amongst 164
children. 164
roles, 164
innoc@@ 164
while. 164
teri@@ 164
immen@@ 164
tv, 164
es), 164
halloween 164
nude 164
paint 164
explain@@ 164
grit@@ 164
wife. 164
insane 164
adop@@ 164
mexican 164
heaven 164
ula 164
ssion 164
actress, 164
usu@@ 164
ints 164
tight 164
suic@@ 164
lis@@ 164
organi@@ 164
fairy 164
asta@@ 164
dani@@ 164
deri@@ 163
tons 163
reporter 163
vent@@ 163
ate@@ 163
hipp@@ 163
novel, 163
prefer 163
away@@ 163
committed 163
ment.<br 163
kids, 163
ye 163
stanwy@@ 163
accid@@ 163
diam@@ 163
display 162
quali@@ 162
real, 162
sm 162
gif@@ 162
flesh 162
locations 162
paralle@@ 162
ating, 162
woman. 162
fast-@@ 162
julia 162
line@@ 162
dread@@ 162
stolen 162
promise 162
false 162
profession@@ 162
brother, 162
ously, 162
elect@@ 162
ach, 162
ial 162
technology 162
pie@@ 162
yar@@ 162
carries 162
stru@@ 162
absor@@ 162
paul@@ 162
decent@@ 162
ange@@ 162
bus 162
ppe@@ 162
slow, 162
indie 161
so-called 161
suffer 161
town. 161
ries 161
scrat@@ 161
yer 161
cash 161
brave 161
uk 161
puppe@@ 161
es). 161
parti@@ 161
spoken 161
quire 161
laugh. 161
bomb 161
des. 161
whi@@ 161
headed 161
rein@@ 161
wed@@ 161
glam@@ 161
texas 161
riding 161
consum@@ 161
laugh, 161
spee@@ 161
decade 161
el's 161
fallen 161
compas@@ 161
zen@@ 161
humour@@ 161
cross@@ 161
surreal 161
beautiful@@ 161
contribu@@ 161
victori@@ 161
lynch 161
controversi@@ 160
matters 160
horren@@ 160
his@@ 160
apparent@@ 160
efforts 160
twisted 160
steps 160
australi@@ 160
dy, 160
renting 160
carried 160
flashbacks 160
technically 160
** 160
ol 160
invisible 160
ler, 160
instru@@ 160
carrying 160
stan@@ 160
fourth 160
illustr@@ 160
outs 160
(197@@ 160
flam@@ 160
mel 160
shap@@ 160
hosp@@ 160
suther@@ 160
pil@@ 159
zy 159
welles 159
style. 159
ald 159
hous@@ 159
raised 159
concerned 159
cring@@ 159
nonsense 159
refreshing 159
forgi@@ 159
14 159
0-@@ 159
attempting 159
electr@@ 159
supp@@ 159
"? 159
.)<br 159
nazi 159
lisa 159
enjoying 159
floor 159
radi@@ 159
julie 159
warm@@ 159
self.<br 158
ics, 158
generation 158
rachel 158
uted 158
cially 158
pointed 158
raise 158
matth@@ 158
ovi@@ 158
offensive 158
film-mak@@ 158
ultim@@ 158
safe 158
complic@@ 158
tire@@ 158
school, 158
sake 158
learning 158
handed 158
t! 158
determined 158
dollar 158
(one 158
tured 158
arm 158
protagonist 158
professor 158
legal 158
say. 158
rad@@ 158
phi@@ 158
goth@@ 158
closing 158
winter@@ 158
instance, 158
caine 158
lock@@ 158
tane@@ 158
entertaining, 158
priest 158
mst3@@ 158
phys@@ 158
crying 157
revolution@@ 157
ous.<br 157
spiel@@ 157
itted 157
rating: 157
another. 157
rental 157
dubb@@ 157
kids. 157
ative. 157
perspective 157
that.<br 157
convey 157
rich@@ 157
movie: 157
desper@@ 157
/>so, 157
alice 157
busin@@ 157
mates 157
by-@@ 157
signific@@ 157
eds 157
real-@@ 157
deeper 157
dull, 157
for, 157
roll@@ 157
-out 157
remind 157
i's 157
performed 157
shad@@ 157
god, 157
bette 157
one-lin@@ 157
easi@@ 157
del 157
why. 157
cia 157
dead, 156
tough@@ 156
poo@@ 156
eff@@ 156
school. 156
anticip@@ 156
ction, 156
neigh@@ 156
desc@@ 156
wears 156
separ@@ 156
highlight 156
spell@@ 156
uniqu@@ 156
ble.<br 156
elli@@ 156
attitu@@ 156
finale 156
insight 156
mask 156
target 156
variety 156
relief 156
freedom 156
lands 156
game. 156
proc@@ 156
host@@ 156
columbo 156
sin 156
servic@@ 156
weight 156
japan 156
mentally 155
ors, 155
card@@ 155
please, 155
return@@ 155
phenomen@@ 155
mildly 155
ential 155
spring@@ 155
y), 155
/>there's 155
executed 155
(this 155
another, 155
works. 155
y/@@ 155
musici@@ 155
beauti@@ 155
notable 155
sorry, 155
puni@@ 155
experiences 155
ado@@ 155
innov@@ 155
recogn@@ 155
needless 155
comparison 155
middle-@@ 155
lei@@ 155
/>- 155
russi@@ 155
al" 154
what? 154
flow@@ 154
past, 154
classics 154
hole 154
zens 154
susan 154
etern@@ 154
lonely 154
burt 154
knowle@@ 154
ames 154
drug@@ 154
ets 154
naturally 154
heart. 154
figures 154
forgot 154
protect 154
princess 154
jumps 154
hall 154
jessica 154
film? 154
chasing 154
film! 154
michelle 154
arian 154
film-making 154
proud 154
isra@@ 154
oul@@ 154
um, 154
wend@@ 154
mode@@ 154
replaced 153
ain't 153
amazingly 153
otherwise, 153
rip 153
metal 153
correct 153
warn 153
gentle@@ 153
stereotypes 153
ry. 153
fortune 153
hitchco@@ 153
ge.<br 153
england 153
families 153
sleeping 153
stric@@ 153
duced 153
chee@@ 153
pilo@@ 153
visuals 153
cus@@ 153
anything, 153
sket@@ 153
lay 153
here.<br 153
harris 153
fear@@ 153
"you 153
contain 153
redemp@@ 153
sir@@ 153
look, 153
trum@@ 153
ement, 153
existence 153
streis@@ 153
victoria 153
wom@@ 152
tes 152
continuity 152
rescu@@ 152
scott@@ 152
desert 152
sati@@ 152
sibil@@ 152
seeking 152
makeup 152
rights 152
contrived 152
cali@@ 152
dedic@@ 152
happened. 152
sold 152
handle 152
shakespeare 152
life.<br 152
cking 152
puzz@@ 152
complicated 152
sharp 152
ensem@@ 152
cinematograph@@ 152
stereotypical 152
adol@@ 152
top@@ 152
witness@@ 152
robot 152
phil@@ 152
mon 152
as. 152
make-up 152
jour@@ 152
sarah 152
phe@@ 152
claire 152
throughout. 152
account 151
dies. 151
window 151
coincid@@ 151
letting 151
town, 151
southern 151
heck 151
men. 151
revolves 151
dition, 151
causes 151
est, 151
first@@ 151
.this 151
larry 151
wilder@@ 151
femal@@ 151
se" 151
ro 151
ool 151
seasons 151
oney 151
midnight 151
picture, 151
most@@ 151
moti@@ 150
city, 150
hitch@@ 150
twic@@ 150
(that 150
is.<br 150
effectively 150
sibility 150
russell 150
franci@@ 150
manu@@ 150
near@@ 150
stan 150
disgusting 150
ical, 150
caricat@@ 150
creatures 150
wasting 150
ton's 150
rough 150
cher@@ 150
ers' 150
acked 150
lawyer 150
daily 150
krist@@ 150
candy 150
statement 150
teenagers 150
elizabeth 150
expe@@ 150
drives 150
adap@@ 150
/>although 150
medical 150
tau@@ 150
sidney 150
perspecti@@ 149
believed 149
albeit 149
celebrit@@ 149
presid@@ 149
astoni@@ 149
oursel@@ 149
tear@@ 149
?), 149
curren@@ 149
scener@@ 149
runn@@ 149
guard 149
revi@@ 149
score, 149
se) 149
side. 149
parano@@ 149
engin@@ 149
lot. 149
flyn@@ 149
7, 148
harsh 148
glimpse 148
distribu@@ 148
romant@@ 148
later. 148
amateurish 148
frea@@ 148
nut@@ 148
how, 148
donna 148
shine 148
adapted 148
govern@@ 148
sole@@ 148
/>first 148
toil@@ 148
arnol@@ 148
weeks 148
wee@@ 148
cinderella 148
con 148
...the 148
truth@@ 148
posing 148
techno@@ 148
ans. 148
warner 148
gers 148
fool 148
artist@@ 148
thoughts 148
adi@@ 148
enorm@@ 148
conveni@@ 148
om 148
fianc@@ 148
gordon 148
karlo@@ 148
powell 148
explic@@ 147
get@@ 147
aven@@ 147
icky 147
clum@@ 147
forwar@@ 147
fans. 147
initially 147
forth 147
16@@ 147
shot@@ 147
angles 147
fing@@ 147
unbear@@ 147
machin@@ 147
suffered 147
ses. 147
tied 147
intellectual 147
gag@@ 147
elabor@@ 147
hey 147
abov@@ 147
-in-@@ 147
moore 147
achieve 147
k-@@ 147
year, 147
192@@ 147
sir 147
8/10 147
critici@@ 146
woman's 146
oblig@@ 146
treat@@ 146
teenag@@ 146
snow@@ 146
history, 146
ities, 146
interview 146
mafi@@ 146
mass 146
alistic 146
?). 146
usual, 146
imaginative 146
foota@@ 146
established 146
evening 146
ryan 146
jewish 146
jim@@ 146
lesser 146
cases 146
wei@@ 146
torn 146
opened 146
nit@@ 146
becau@@ 146
splen@@ 146
help@@ 146
like. 146
realistic. 146
perfect. 146
crowd 146
recommended. 146
sher 146
restra@@ 146
mar 145
admitt@@ 145
plagu@@ 145
whol@@ 145
service 145
blance 145
connected 145
mob@@ 145
direction. 145
mit@@ 145
jor@@ 145
embarrassed 145
griff@@ 145
sacrific@@ 145
poor, 145
arthur@@ 145
flat@@ 145
muppe@@ 145
shadow 145
smu@@ 145
scale 145
maria 145
ki 145
rubbi@@ 145
choreograph@@ 145
whereas 145
te's 145
questi@@ 145
speech 145
scop@@ 145
ney, 145
reference 145
inspector 145
succeeds 145
eding 145
hud@@ 145
atty 144
intro@@ 144
attacked 144
hip 144
relent@@ 144
fabulous 144
predictable. 144
encounter 144
ambigu@@ 144
case. 144
consists 144
something, 144
covers 144
bollywood 144
shot. 144
cabin 144
again.<br 144
mum 144
nes@@ 144
teenager 144
nes 144
2-@@ 144
packed 144
mir@@ 144
sinister 144
listed 143
examples 143
mond 143
tation 143
underground 143
that? 143
ruth@@ 143
/>anyway, 143
inept 143
sunday 143
eyes, 143
asleep 143
frequ@@ 143
excitement 143
path 143
exp@@ 143
second, 143
child. 143
camera. 143
christma@@ 143
cruel 143
conversation 143
must-@@ 143
territ@@ 143
mann 143
propaganda 143
where@@ 143
clips 143
avi@@ 143
child, 143
old. 143
inexplic@@ 143
vampires 143
different. 143
bbc 143
am, 143
everyday 143
myself, 143
lows 143
colon@@ 143
kick@@ 143
level. 142
ender 142
thunder@@ 142
gim@@ 142
base 142
doom@@ 142
tch 142
philip 142
remote 142
se! 142
regard@@ 142
ges, 142
abuse 142
stanley 142
bin 142
mountain 142
mgm 142
econom@@ 142
ira@@ 142
restaur@@ 142
i.@@ 142
sma@@ 142
8. 142
hundreds 142
lect@@ 142
fully, 142
ers.<br 142
sisters 142
spon@@ 142
refuses 142
depressi@@ 142
cinemato@@ 142
ggy 141
allow@@ 141
sum 141
phra@@ 141
turing 141
infamous 141
4/10 141
failure 141
student@@ 141
enem@@ 141
size 141
best@@ 141
destroyed 141
struck 141
ved. 141
trick 141
non-exist@@ 141
---@@ 141
do-@@ 141
introduction 141
ality, 141
successfully 141
separate 141
strangely 141
kin 141
league 141
brilliant@@ 141
gritty 141
dogs 141
eleph@@ 141
per. 141
similar@@ 141
dley 141
cal 141
uniform@@ 141
y,@@ 141
ira 141
ti 141
yel@@ 140
body@@ 140
hatt@@ 140
minded 140
horrible, 140
angel 140
ded@@ 140
b-movie 140
cassi@@ 140
ingu@@ 140
past. 140
oka@@ 140
plausible 140
degree 140
nic 140
fan. 140
perpe@@ 140
annoying. 140
hundred 140
yl 140
mii@@ 140
crude 140
happily 140
py 140
anna@@ 140
dislike 140
check@@ 140
rain 140
prostit@@ 140
:) 140
s." 140
rer 140
ite@@ 140
limit@@ 140
thousands 140
dead. 140
extraordinary 140
eg@@ 140
eventu@@ 140
forest 140
busy 140
styli@@ 140
performanc@@ 140
japan@@ 140
frequently 140
ma, 140
brown 139
pseu@@ 139
mistakes 139
paper 139
fans, 139
sucked 139
civil 139
bra 139
kie 139
al-@@ 139
wis@@ 139
saves 139
struggles 139
kurt 139
blood, 139
neck 139
alone. 139
incredi@@ 139
delivery 139
-for-@@ 139
accept@@ 139
iling 139
sequels 139
princ@@ 139
quis@@ 139
lloy@@ 139
abs@@ 139
matter@@ 139
crafted 139
bell 139
stev@@ 139
syl@@ 139
kare@@ 139
hem@@ 139
vani@@ 139
re" 139
rose@@ 139
flight 139
rules 139
sword 139
werewol@@ 139
simul@@ 138
interest. 138
sively 138
drinking 138
garbage. 138
"this 138
blon@@ 138
demo@@ 138
hunter 138
10, 138
brita@@ 138
arms 138
checking 138
tedious 138
ddy 138
gin 138
hi 138
sets, 138
ashamed 138
secret@@ 138
campy 138
than@@ 138
hai@@ 138
caring 138
detr@@ 138
sends 138
brutal@@ 138
perform 138
qualities 138
ships 138
(of 138
phili@@ 138
ses, 138
murphy 138
pitch@@ 138
rus@@ 138
nation@@ 138
depar@@ 138
naz@@ 138
colour@@ 138
"b@@ 138
toy 138
glen@@ 138
shoots 138
through, 138
particip@@ 138
vietnam 137
jr@@ 137
editing, 137
hau@@ 137
wealthy 137
empa@@ 137
unrealistic 137
sy, 137
occa@@ 137
concerns 137
and-@@ 137
appearing 137
reputation 137
vis 137
dialogue. 137
balance 137
mind-@@ 137
narrat@@ 137
compu@@ 137
render@@ 137
greatly 137
complex@@ 137
rubbish 137
shines 137
change@@ 137
overcome 137
abrup@@ 137
ralph 137
stops 137
complet@@ 137
killers 137
past@@ 137
ign 137
dam 137
interpretation 137
zo 137
women@@ 136
future. 136
bit. 136
challenge 136
wonderful. 136
husband, 136
ped, 136
gruesome 136
tales 136
4) 136
city. 136
sh-@@ 136
teens 136
kath@@ 136
lines. 136
storm 136
stood 136
nine 136
raw 136
hero, 136
/>(@@ 136
shut 136
full-@@ 136
traum@@ 136
grade: 136
women. 136
ugh@@ 136
e", 136
foster 136
hint 136
psycho 136
ding. 136
description 136
dealt 136
amazing. 136
danger@@ 136
expert 136
broke 136
country@@ 135
cares 135
stories, 135
believable. 135
star. 135
person, 135
ingen@@ 135
?!@@ 135
wow, 135
thousand 135
re's 135
ler@@ 135
factor 135
sp 135
frankly 135
dinosaur@@ 135
routine 135
enter@@ 135
6, 135
quality. 135
6. 135
career, 135
9. 135
catholic 135
--the 135
suspenseful 135
minds 135
expla@@ 135
streng@@ 135
alcoho@@ 135
set-@@ 135
violence. 135
winner 135
ed; 134
dise@@ 134
light. 134
clark 134
arrives 134
succeed@@ 134
sleazy 134
furi@@ 134
pid 134
kicks 134
offen@@ 134
strip@@ 134
ting, 134
sincer@@ 134
simpl@@ 134
blea@@ 134
aunt 134
cei@@ 134
first-@@ 134
,i 134
tense 134
portrait 134
vig@@ 134
observ@@ 134
spoof 134
device 134
amer@@ 134
salv@@ 134
shakespeare@@ 134
movie" 134
happen. 134
title, 134
emi@@ 134
enemy 134
thriller, 134
eral 134
hat 134
per-@@ 134
ingredi@@ 134
luci@@ 133
ita 133
video. 133
deaths 133
willi@@ 133
ray@@ 133
tedi@@ 133
troubled 133
pover@@ 133
whatsoever. 133
teach 133
outing 133
danger 133
dire@@ 133
dragged 133
cliff@@ 133
quot@@ 133
"re@@ 133
eva 133
mob 133
levels 133
fix@@ 133
um. 133
they'd 133
ay 133
pok@@ 133
park@@ 133
andrew 133
mid 133
zard 133
kubr@@ 133
ding, 133
un-@@ 133
advantage 133
dang@@ 133
fi 133
ley's 133
enters 133
criticism 133
physically 133
ding@@ 133
wanna 133
pa 133
sco 133
17 133
marvelous 133
chang@@ 133
bull@@ 133
icia 133
lind@@ 133
silver@@ 133
weal@@ 133
ern@@ 132
ironic 132
surrounding 132
alized 132
mindless 132
praise 132
delight@@ 132
ripped 132
sad, 132
term 132
heart-@@ 132
regre@@ 132
sweet@@ 132
reve@@ 132
horrific 132
apes 132
countless 132
material. 132
sound@@ 132
ago@@ 132
blair 132
conserv@@ 132
ela 132
spending 132
star, 132
oul 132
sa 132
repeat@@ 132
jeremy 132
arrog@@ 132
two@@ 132
freeman 132
person. 132
reynol@@ 132
ee@@ 132
inct 132
conventional 132
extras 132
catherine 132
anderson 132
ctor 132
time-@@ 132
anymore. 132
game, 132
bie 132
religion 132
subur@@ 132
7/10 132
samura@@ 132
bettie 132
kor@@ 132
millions 131
politics 131
clichéd 131
selling 131
casu@@ 131
ners 131
ent.<br 131
world's 131
english@@ 131
escapes 131
artists 131
exerci@@ 131
2nd 131
structure 131
yester@@ 131
juven@@ 131
cynical 131
prophe@@ 131
believing 131
view, 131
nevertheless, 131
fbi 131
f-@@ 131
eless, 131
cloth@@ 131
tic, 131
clich@@ 131
lot@@ 131
martin@@ 131
enough@@ 131
ist, 131
suspense, 131
whoo@@ 131
then. 131
vulner@@ 131
margare@@ 131
nudity, 130
pha@@ 130
entertain 130
slapstick 130
inser@@ 130
plastic 130
lazy 130
amoun@@ 130
associated 130
execution 130
wishes 130
ance@@ 130
behin@@ 130
dialog, 130
cowboy 130
ett@@ 130
kitch@@ 130
sophi@@ 130
announc@@ 130
moment, 130
spin 130
honest, 130
solve 130
really. 130
........@@ 130
jr. 130
ca 130
vest@@ 130
gabri@@ 130
etc 130
(john 130
sopran@@ 130
vincent 129
ble-@@ 129
interviews 129
strictly 129
dorothy 129
stealing 129
releas@@ 129
right? 129
reality, 129
matthe@@ 129
obsession 129
regul@@ 129
livi@@ 129
skill 129
writer, 129
breath 129
stylish 129
thriller. 129
allowing 129
futu@@ 129
answers 129
uous 129
attempted 129
cele@@ 129
increasingly 129
theory 129
port 129
classic, 129
develops 129
bugs 129
denzel 129
irel@@ 129
c, 129
proof 129
chilling 129
hamil@@ 129
ter's 129
surrounded 128
screening 128
set. 128
why, 128
track@@ 128
wins 128
they'@@ 128
ination 128
wave 128
th's 128
stair@@ 128
presuma@@ 128
ship, 128
obses@@ 128
stage@@ 128
determin@@ 128
ung 128
associ@@ 128
venge@@ 128
vor@@ 127
lear@@ 127
explan@@ 126
lew@@ 126
er/@@ 126
pet@@ 126
memori@@ 125
ular 125
aband@@ 125
of-@@ 125
coher@@ 125
ade@@ 125
bizar@@ 125
relati@@ 125
ples 125
slight@@ 124
forgett@@ 124
mp@@ 124
ough 124
slea@@ 123
micha@@ 123
aper 122
maj@@ 122
aspe@@ 122
----@@ 122
nud@@ 121
recent@@ 121
cum@@ 121
grap@@ 121
soli@@ 121
teac@@ 120
perha@@ 120
independ@@ 120
suspense@@ 120
inspi@@ 119
remin@@ 119
hou@@ 119
>@@ 119
==@@ 119
aroun@@ 118
keat@@ 118
gic 117
execut@@ 117
choreo@@ 117
ject@@ 117
ult 117
degre@@ 116
fici@@ 116
vehic@@ 116
children@@ 115
lig@@ 115
norm@@ 114
stran@@ 114
invest@@ 113
elo@@ 113
inging 112
za@@ 112
publ@@ 112
mr@@ 112
sac@@ 112
ah, 111
’@@ 111
count@@ 110
orious 110
inno@@ 110
expl@@ 110
betw@@ 109
oooo@@ 109
ird 109
actre@@ 109
invol@@ 109
moun@@ 109
fru@@ 109
marti@@ 109
techni@@ 108
pressi@@ 108
imal 108
eman 108
relev@@ 108
rede@@ 108
__@@ 108
docum@@ 107
joh@@ 107
bi 107
intellectu@@ 106
peop@@ 106
experi@@ 106
ambi@@ 106
neverth@@ 105
vinc@@ 105
avail@@ 105
{@@ 105
dio@@ 105
dden 104
bother@@ 104
nai@@ 104
è@@ 104
stol@@ 104
washing@@ 103
aun@@ 103
wash@@ 103
abor@@ 103
attemp@@ 103
performan@@ 103
centr@@ 103
midd@@ 102
tel 101
pretenti@@ 101
ten, 101
elly 100
hea@@ 100
magnific@@ 100
assu@@ 99
surprising@@ 99
thou@@ 99
never@@ 99
superi@@ 99
edu@@ 99
bot@@ 98
gger 98
[@@ 98
angr@@ 98
beth 98
contem@@ 98
ins@@ 98
hh@@ 98
amat@@ 97
ority 97
ema@@ 97
vh@@ 96
conc@@ 96
sacri@@ 96
oppos@@ 96
gorge@@ 96
wise, 96
enly 96
forge@@ 95
depre@@ 95
utter@@ 95
= 95
alex@@ 95
glim@@ 95
.s. 95
ety 94
=@@ 94
amateu@@ 94
gha@@ 94
strugg@@ 94
thur@@ 93
ool@@ 93
shado@@ 93
gge@@ 93
quest@@ 93
garba@@ 92
ith@@ 92
espe@@ 91
adver@@ 91
interpre@@ 91
produ@@ 91
exe@@ 91
alco@@ 91
_ 90
surroun@@ 90
spect@@ 90
initi@@ 90
<@@ 90
faith@@ 90
cinder@@ 90
ange 89
awk@@ 89
lesbi@@ 89
descrip@@ 89
dred 89
occasion@@ 88
acro@@ 88
ilo@@ 88
reveal@@ 87
+@@ 87
disappo@@ 87
bers 87
invi@@ 87
nel 87
paro@@ 87
,00@@ 86
favor@@ 86
viet@@ 86
marvel@@ 86
á@@ 86
gover@@ 86
flic@@ 85
rol 85
milit@@ 85
ign@@ 85
rying 85
reput@@ 84
steph@@ 84
ditional 84
tagon@@ 83
anth@@ 83
sudd@@ 83
prou@@ 83
beg@@ 83
atro@@ 82
hallowe@@ 82
gare@@ 82
profess@@ 82
backs 82
acade@@ 82
een 82
mart@@ 82
refre@@ 82
increas@@ 82
sinat@@ 82
zom@@ 82
recommende@@ 82
gely 81
– 81
murph@@ 80
propag@@ 80
sid@@ 80
cinem@@ 79
fig@@ 79
eo@@ 79
youn@@ 79
ssive 78
tures 78
l-@@ 78
prop@@ 78
~ 78
ounc@@ 78
dann@@ 78
instead@@ 77
jap@@ 77
nei@@ 77
sop@@ 76
chemi@@ 76
jas@@ 76
esome 76
embar@@ 76
mem@@ 76
dinosa@@ 76
psy@@ 76
sour@@ 76
itely 75
legend@@ 75
extr@@ 75
gab@@ 75
ept 75
veter@@ 75
accident@@ 75
inste@@ 74
sheri@@ 74
amb@@ 74
beli@@ 74
depend@@ 74
ould've 73
dete@@ 73
agger@@ 72
gram@@ 72
satur@@ 71
whil@@ 71
asle@@ 71
compre@@ 71
esom@@ 71
profes@@ 71
overs 70
husb@@ 70
distri@@ 70
@@ 70
beha@@ 69
@@@ 69
stry 69
aga@@ 69
tarz@@ 69
thern 68
org@@ 68
festi@@ 68
favourit@@ 68
classi@@ 68
bey@@ 67
contin@@ 67
mista@@ 67
span@@ 67
leag@@ 67
redeem@@ 66
advan@@ 66
$ 65
eo 65
aly@@ 65
priv@@ 65
slap@@ 64
unfortun@@ 64
diff@@ 64
ano@@ 64
nap@@ 64
shakespe@@ 64
ister 63
embarra@@ 63
tern@@ 63
gir@@ 63
ap 62
remem@@ 62
] 61
certain@@ 61
suppo@@ 61
necess@@ 61
mee@@ 61
fasc@@ 60
partici@@ 60
exact@@ 60
creas@@ 60
 59
prin@@ 59
keep@@ 59
ain@@ 59
mass@@ 59
mg@@ 59
wers 58
roman@@ 58
tayl@@ 58
gi 58
prost@@ 58
} 57
wro@@ 57
afra@@ 57
leas@@ 56
£@@ 55
ides 55
reas@@ 55
kur@@ 54
over-the-@@ 54
myst@@ 54
't 54
year-@@ 54
corre@@ 54
stream 53
intel@@ 53
ä@@ 53
absol@@ 53
unning 53
controver@@ 52
for-@@ 51
cog@@ 50
anci@@ 50
portra@@ 50
hic@@ 50
secur@@ 50
}@@ 50
ura@@ 50
contempor@@ 50
desp@@ 49
oughly 49
sant@@ 49
previ@@ 48
challen@@ 48
which@@ 48
essenti@@ 48
> 47
ctr@@ 47
ü@@ 47
philosop@@ 46
]@@ 46
%@@ 46
seu@@ 46
	@@ 46
í@@ 46
suppose@@ 45
mend@@ 45
i'@@ 44
antici@@ 43
medioc@@ 43
cyn@@ 43
fabul@@ 43
n't 42
michel@@ 42
vam@@ 42
tiv@@ 42
vie@@ 42
spect 41
hic 41
accor@@ 41
sic 41
ö@@ 41
forni@@ 41
rubb@@ 40
whel@@ 40
mas 40
de: 40
isc@@ 40
ó@@ 40
gram 40
were@@ 39
barbar@@ 39
canadi@@ 39
ousy 39
block@@ 39
genu@@ 39
ç@@ 39
icide 39
apparen@@ 39
¡@@ 39
jose@@ 38
asham@@ 37
gratuit@@ 37
~@@ 37
arious 37
toda@@ 35
ñ@@ 35
hel 35
relation@@ 35
reminisc@@ 35
gaz@@ 35
ante@@ 35
eliza@@ 35
presu@@ 35
iso@@ 35
tot@@ 34
til 34
vamp@@ 34
ral@@ 33
jess@@ 33
ï@@ 33
rical 33
zel 33
when@@ 32
erous 32
remo@@ 32
â@@ 31
@@ 31
# 31
achi@@ 31
¨@@ 31
stak@@ 30
christop@@ 30
stem@@ 30
exer@@ 30
cultur@@ 29
therine 29
“@@ 29
jenni@@ 29
ô@@ 29
^@@ 28
vict@@ 27
partic@@ 27
ë@@ 27
kev@@ 27
wif@@ 27
mely 26
ridic@@ 26
omen@@ 26
philo@@ 26
osa@@ 26
ã@@ 26
bollywoo@@ 25
ê@@ 25
inspect@@ 25
mone@@ 25
thous@@ 24
haven@@ 24
emy 24
nam 24
commer@@ 23
ppo@@ 23
formu@@ 23
rish 23
sional 22
techn@@ 22
à 22
ould 21
cid@@ 21
mare 21
spea@@ 21
¨ 21
inely 20
fore 20
ô 20
hundre@@ 20
@@ 19
à@@ 19
tely 19
bage 18
resc@@ 18
effe@@ 18
ince 18
@@ 18
@@ 18
«@@ 18
vili@@ 17
icat@@ 17
ú@@ 17
popu@@ 16
½ 16
atmo@@ 16
nis 16
utely 16
å@@ 16
costu@@ 16
” 16
doro@@ 14
gular 14
’ 14
· 14
¦@@ 14
|@@ 13
\@@ 13
@ 13
weren@@ 13
enty 13
§@@ 13
nd 12
you'@@ 12
circum@@ 12
stem 12
dio 12
phen@@ 12
rey@@ 11
< 11
 11
”@@ 11
lowe@@ 11
»@@ 11
ø@@ 10
^ 9
vil 9
intellect@@ 9
eff 9
» 9
á 8
inev@@ 8
albe@@ 8
ould'@@ 7
 7
mst@@ 7
/or 7
‘@@ 7
favou@@ 7
í 7
semi@@ 6
ù 6
ó 6
` 6
lywoo@@ 6
stren@@ 6
uit@@ 6
poin@@ 6
½@@ 6
å 6
 @@ 5
tenti@@ 5
reo@@ 5
æ@@ 5
î@@ 5
-fi 5
catho@@ 5
childre@@ 5
arthu@@ 4
pared 4
û@@ 4
\ 4
orm@@ 4
® 4
charact@@ 4
@@ 4
envir@@ 3
sn't 3
è 3
ceed@@ 3
ludic@@ 3
õ@@ 3
ō@@ 3
¿@@ 3
ß 3
ò@@ 3
redi@@ 3
| 3
@@ 3
…@@ 3
  2
ß@@ 2
₤@@ 2
ú 2
ä 2
rigu@@ 2
among@@ 2
î 2
chall@@ 2
noxi@@ 2
toge@@ 2
ì 2
[ 2
… 2
enthu@@ 2
ý@@ 2
ý 2
econ@@ 1
@@ 1
 1
¾ 1
ð@@ 1
{ 1
exic@@ 1
¢@@ 1
º 1
´ 1
austr@@ 1
 1
pathe@@ 1
ç 1
protagon@@ 1
befo@@ 1
£ 1
 1
dn't 1
diffic@@ 1
@@ 1
¤@@ 1
@@ 1
ggest 1
­@@ 1
ï 1
ê 1
ë 1
õ 1
³@@ 1
°@@ 1
